/*
 * Copyright (c) 2026 EdgeImpulse Inc.
 *
 * Generated by Edge Impulse and licensed under the applicable Edge Impulse
 * Terms of Service. Community and Professional Terms of Service
 * (https://edgeimpulse.com/legal/terms-of-service) or Enterprise Terms of
 * Service (https://edgeimpulse.com/legal/enterprise-terms-of-service),
 * according to your product plan subscription (the “License”).
 *
 * This software, documentation and other associated files (collectively referred
 * to as the “Software”) is a single SDK variation generated by the Edge Impulse
 * platform and requires an active paid Edge Impulse subscription to use this
 * Software for any purpose.
 *
 * You may NOT use this Software unless you have an active Edge Impulse subscription
 * that meets the eligibility requirements for the applicable License, subject to
 * your full and continued compliance with the terms and conditions of the License,
 * including without limitation any usage restrictions under the applicable License.
 *
 * If you do not have an active Edge Impulse product plan subscription, or if use
 * of this Software exceeds the usage limitations of your Edge Impulse product plan
 * subscription, you are not permitted to use this Software and must immediately
 * delete and erase all copies of this Software within your control or possession.
 * Edge Impulse reserves all rights and remedies available to enforce its rights.
 *
 * Unless required by applicable law or agreed to in writing, the Software is
 * distributed on an "AS IS" BASIS, WITHOUT WARRANTIES OR CONDITIONS OF ANY KIND,
 * either express or implied. See the License for the specific language governing
 * permissions, disclaimers and limitations under the License.
 */

#ifndef _EI_CLASSIFIER_TFLITE_LEARN_960921_6_H_
#define _EI_CLASSIFIER_TFLITE_LEARN_960921_6_H_

#define EI_CLASSIFIER_TFLITE_LEARN_960921_6_ARENA_SIZE     287104
const size_t tflite_learn_960921_6_arena_size = 287104;

#if defined __GNUC__
#define ALIGN(X) __attribute__((aligned(X)))
#elif defined _MSC_VER
#define ALIGN(X) __declspec(align(X))
#elif defined __TASKING__
#define ALIGN(X) __align(X)
#else
#define ALIGN(X)
#endif

#if defined(EI_MODEL_SECTION) && (defined(__GNUC__) || defined(__clang__))
#define STRINGIZE(x) #x
#define STRINGIZE_VALUE_OF(x) STRINGIZE(x)
#define MODEL_SECTION(X) __attribute__((section(STRINGIZE_VALUE_OF(X))))
#else
#define MODEL_SECTION(X)
#endif


MODEL_SECTION(EI_MODEL_SECTION) ALIGN(16) const unsigned char tflite_learn_960921_6[] = {
  0x20, 0x00, 0x00, 0x00, 0x54, 0x46, 0x4c, 0x33, 0x00, 0x00, 0x00, 0x00,
  0x14, 0x00, 0x20, 0x00, 0x1c, 0x00, 0x18, 0x00, 0x14, 0x00, 0x10, 0x00,
  0x0c, 0x00, 0x00, 0x00, 0x08, 0x00, 0x04, 0x00, 0x14, 0x00, 0x00, 0x00,
  0x1c, 0x00, 0x00, 0x00, 0x8c, 0x00, 0x00, 0x00, 0xe4, 0x00, 0x00, 0x00,
  0xf4, 0x2e, 0x00, 0x00, 0x04, 0x2f, 0x00, 0x00, 0x28, 0x9b, 0x00, 0x00,
  0x03, 0x00, 0x00, 0x00, 0x01, 0x00, 0x00, 0x00, 0x10, 0x00, 0x00, 0x00,
  0x00, 0x00, 0x0a, 0x00, 0x10, 0x00, 0x0c, 0x00, 0x08, 0x00, 0x04, 0x00,
  0x0a, 0x00, 0x00, 0x00, 0x0c, 0x00, 0x00, 0x00, 0x1c, 0x00, 0x00, 0x00,
  0x3c, 0x00, 0x00, 0x00, 0x0f, 0x00, 0x00, 0x00, 0x73, 0x65, 0x72, 0x76,
  0x69, 0x6e, 0x67, 0x5f, 0x64, 0x65, 0x66, 0x61, 0x75, 0x6c, 0x74, 0x00,
  0x01, 0x00, 0x00, 0x00, 0x04, 0x00, 0x00, 0x00, 0x9c, 0xff, 0xff, 0xff,
  0x47, 0x00, 0x00, 0x00, 0x04, 0x00, 0x00, 0x00, 0x08, 0x00, 0x00, 0x00,
  0x6f, 0x75, 0x74, 0x70, 0x75, 0x74, 0x5f, 0x30, 0x00, 0x00, 0x00, 0x00,
  0x01, 0x00, 0x00, 0x00, 0x04, 0x00, 0x00, 0x00, 0xa2, 0xd0, 0xff, 0xff,
  0x04, 0x00, 0x00, 0x00, 0x01, 0x00, 0x00, 0x00, 0x78, 0x00, 0x00, 0x00,
  0x02, 0x00, 0x00, 0x00, 0x34, 0x00, 0x00, 0x00, 0x04, 0x00, 0x00, 0x00,
  0xdc, 0xff, 0xff, 0xff, 0x4a, 0x00, 0x00, 0x00, 0x04, 0x00, 0x00, 0x00,
  0x13, 0x00, 0x00, 0x00, 0x43, 0x4f, 0x4e, 0x56, 0x45, 0x52, 0x53, 0x49,
  0x4f, 0x4e, 0x5f, 0x4d, 0x45, 0x54, 0x41, 0x44, 0x41, 0x54, 0x41, 0x00,
  0x08, 0x00, 0x0c, 0x00, 0x08, 0x00, 0x04, 0x00, 0x08, 0x00, 0x00, 0x00,
  0x49, 0x00, 0x00, 0x00, 0x04, 0x00, 0x00, 0x00, 0x13, 0x00, 0x00, 0x00,
  0x6d, 0x69, 0x6e, 0x5f, 0x72, 0x75, 0x6e, 0x74, 0x69, 0x6d, 0x65, 0x5f,
  0x76, 0x65, 0x72, 0x73, 0x69, 0x6f, 0x6e, 0x00, 0x4b, 0x00, 0x00, 0x00,
  0x0c, 0x2e, 0x00, 0x00, 0x04, 0x2e, 0x00, 0x00, 0xd4, 0x2d, 0x00, 0x00,
  0xbc, 0x2d, 0x00, 0x00, 0x6c, 0x2d, 0x00, 0x00, 0xdc, 0x2c, 0x00, 0x00,
  0xcc, 0x26, 0x00, 0x00, 0xfc, 0x25, 0x00, 0x00, 0x6c, 0x24, 0x00, 0x00,
  0x3c, 0x24, 0x00, 0x00, 0xac, 0x22, 0x00, 0x00, 0xdc, 0x21, 0x00, 0x00,
  0x1c, 0x20, 0x00, 0x00, 0x4c, 0x1f, 0x00, 0x00, 0xbc, 0x1d, 0x00, 0x00,
  0x8c, 0x1d, 0x00, 0x00, 0xfc, 0x1b, 0x00, 0x00, 0x2c, 0x1b, 0x00, 0x00,
  0x6c, 0x19, 0x00, 0x00, 0x9c, 0x18, 0x00, 0x00, 0x0c, 0x17, 0x00, 0x00,
  0xdc, 0x16, 0x00, 0x00, 0x4c, 0x15, 0x00, 0x00, 0x7c, 0x14, 0x00, 0x00,
  0xbc, 0x12, 0x00, 0x00, 0xec, 0x11, 0x00, 0x00, 0x5c, 0x10, 0x00, 0x00,
  0x2c, 0x10, 0x00, 0x00, 0x9c, 0x0e, 0x00, 0x00, 0xcc, 0x0d, 0x00, 0x00,
  0x0c, 0x0c, 0x00, 0x00, 0x3c, 0x0b, 0x00, 0x00, 0xac, 0x09, 0x00, 0x00,
  0x7c, 0x09, 0x00, 0x00, 0xec, 0x07, 0x00, 0x00, 0x1c, 0x07, 0x00, 0x00,
  0x5c, 0x05, 0x00, 0x00, 0x8c, 0x04, 0x00, 0x00, 0xfc, 0x02, 0x00, 0x00,
  0xcc, 0x02, 0x00, 0x00, 0x7c, 0x02, 0x00, 0x00, 0x4c, 0x02, 0x00, 0x00,
  0xf4, 0x01, 0x00, 0x00, 0xc4, 0x01, 0x00, 0x00, 0x6c, 0x01, 0x00, 0x00,
  0x64, 0x01, 0x00, 0x00, 0x5c, 0x01, 0x00, 0x00, 0x54, 0x01, 0x00, 0x00,
  0x4c, 0x01, 0x00, 0x00, 0x44, 0x01, 0x00, 0x00, 0x3c, 0x01, 0x00, 0x00,
  0x34, 0x01, 0x00, 0x00, 0x2c, 0x01, 0x00, 0x00, 0x24, 0x01, 0x00, 0x00,
  0x1c, 0x01, 0x00, 0x00, 0x14, 0x01, 0x00, 0x00, 0x0c, 0x01, 0x00, 0x00,
  0x04, 0x01, 0x00, 0x00, 0xfc, 0x00, 0x00, 0x00, 0xf4, 0x00, 0x00, 0x00,
  0xec, 0x00, 0x00, 0x00, 0xe4, 0x00, 0x00, 0x00, 0xdc, 0x00, 0x00, 0x00,
  0xd4, 0x00, 0x00, 0x00, 0xcc, 0x00, 0x00, 0x00, 0xc4, 0x00, 0x00, 0x00,
  0xbc, 0x00, 0x00, 0x00, 0xb4, 0x00, 0x00, 0x00, 0xac, 0x00, 0x00, 0x00,
  0xa4, 0x00, 0x00, 0x00, 0x9c, 0x00, 0x00, 0x00, 0x94, 0x00, 0x00, 0x00,
  0x8c, 0x00, 0x00, 0x00, 0x6c, 0x00, 0x00, 0x00, 0x04, 0x00, 0x00, 0x00,
  0x3e, 0xd2, 0xff, 0xff, 0x04, 0x00, 0x00, 0x00, 0x58, 0x00, 0x00, 0x00,
  0x0c, 0x00, 0x00, 0x00, 0x08, 0x00, 0x0e, 0x00, 0x08, 0x00, 0x04, 0x00,
  0x08, 0x00, 0x00, 0x00, 0x10, 0x00, 0x00, 0x00, 0x28, 0x00, 0x00, 0x00,
  0x00, 0x00, 0x06, 0x00, 0x08, 0x00, 0x04, 0x00, 0x06, 0x00, 0x00, 0x00,
  0x04, 0x00, 0x00, 0x00, 0x01, 0x00, 0x00, 0x00, 0xeb, 0x03, 0x00, 0x00,
  0x00, 0x00, 0x0a, 0x00, 0x10, 0x00, 0x0c, 0x00, 0x08, 0x00, 0x04, 0x00,
  0x0a, 0x00, 0x00, 0x00, 0x03, 0x00, 0x00, 0x00, 0x02, 0x00, 0x00, 0x00,
  0x04, 0x00, 0x00, 0x00, 0x06, 0x00, 0x00, 0x00, 0x32, 0x2e, 0x31, 0x31,
  0x2e, 0x31, 0x00, 0x00, 0xa2, 0xd2, 0xff, 0xff, 0x04, 0x00, 0x00, 0x00,
  0x10, 0x00, 0x00, 0x00, 0x31, 0x2e, 0x31, 0x34, 0x2e, 0x30, 0x00, 0x00,
  0x00, 0x00, 0x00, 0x00, 0x00, 0x00, 0x00, 0x00, 0x2c, 0x68, 0xff, 0xff,
  0x30, 0x68, 0xff, 0xff, 0x34, 0x68, 0xff, 0xff, 0x38, 0x68, 0xff, 0xff,
  0x3c, 0x68, 0xff, 0xff, 0x40, 0x68, 0xff, 0xff, 0x44, 0x68, 0xff, 0xff,
  0x48, 0x68, 0xff, 0xff, 0x4c, 0x68, 0xff, 0xff, 0x50, 0x68, 0xff, 0xff,
  0x54, 0x68, 0xff, 0xff, 0x58, 0x68, 0xff, 0xff, 0x5c, 0x68, 0xff, 0xff,
  0x60, 0x68, 0xff, 0xff, 0x64, 0x68, 0xff, 0xff, 0x68, 0x68, 0xff, 0xff,
  0x6c, 0x68, 0xff, 0xff, 0x70, 0x68, 0xff, 0xff, 0x74, 0x68, 0xff, 0xff,
  0x78, 0x68, 0xff, 0xff, 0x7c, 0x68, 0xff, 0xff, 0x80, 0x68, 0xff, 0xff,
  0x84, 0x68, 0xff, 0xff, 0x88, 0x68, 0xff, 0xff, 0x8c, 0x68, 0xff, 0xff,
  0x90, 0x68, 0xff, 0xff, 0x94, 0x68, 0xff, 0xff, 0x98, 0x68, 0xff, 0xff,
  0x2e, 0xd3, 0xff, 0xff, 0x04, 0x00, 0x00, 0x00, 0x48, 0x00, 0x00, 0x00,
  0xc7, 0x32, 0x09, 0x81, 0x79, 0x00, 0xd6, 0x2e, 0x00, 0x39, 0x7f, 0x23,
  0xbb, 0xb0, 0xd4, 0x07, 0xd6, 0x05, 0x1e, 0x1b, 0xd1, 0x33, 0x45, 0x81,
  0x14, 0x20, 0xc5, 0x2a, 0x35, 0x14, 0x35, 0x4a, 0x1a, 0xb0, 0x81, 0xc7,
  0x04, 0xcb, 0x2f, 0x10, 0x81, 0x70, 0x05, 0xdb, 0x20, 0x02, 0xc8, 0x00,
  0x00, 0x7f, 0x02, 0x01, 0xb5, 0x00, 0xef, 0xab, 0x05, 0xe5, 0x81, 0xff,
  0xf6, 0xd0, 0x0a, 0x2c, 0x81, 0x20, 0xec, 0xfc, 0xf7, 0xe7, 0x4a, 0xf6,
  0x82, 0xd3, 0xff, 0xff, 0x04, 0x00, 0x00, 0x00, 0x20, 0x00, 0x00, 0x00,
  0xdb, 0x11, 0x00, 0x00, 0xe0, 0x0f, 0x00, 0x00, 0xfc, 0x00, 0x00, 0x00,
  0xba, 0x55, 0x00, 0x00, 0x7a, 0x0a, 0x00, 0x00, 0x20, 0x17, 0x00, 0x00,
  0x31, 0x5c, 0x01, 0x00, 0xc2, 0x1a, 0x00, 0x00, 0xae, 0xd3, 0xff, 0xff,
  0x04, 0x00, 0x00, 0x00, 0x48, 0x00, 0x00, 0x00, 0xff, 0x01, 0x0b, 0x13,
  0x0d, 0x01, 0x08, 0x1f, 0x07, 0x02, 0xd5, 0x7f, 0xed, 0x01, 0xfb, 0x1e,
  0xfe, 0x01, 0xf4, 0x13, 0x01, 0x02, 0xf9, 0x15, 0xfa, 0x00, 0x7f, 0xeb,
  0x7f, 0x00, 0x90, 0x29, 0x7f, 0x81, 0x91, 0x06, 0xa4, 0x7f, 0xf1, 0x81,
  0xe6, 0x05, 0x0e, 0xed, 0xfe, 0x01, 0x7f, 0x26, 0x00, 0x00, 0x07, 0x04,
  0x09, 0xff, 0x0f, 0x21, 0x04, 0x02, 0xcf, 0xfc, 0xf0, 0x02, 0xf6, 0x98,
  0xfe, 0xff, 0xf6, 0x01, 0xfe, 0xff, 0xfa, 0x25, 0x02, 0xd4, 0xff, 0xff,
  0x04, 0x00, 0x00, 0x00, 0x20, 0x00, 0x00, 0x00, 0x3e, 0xd6, 0xff, 0xff,
  0x87, 0x29, 0x00, 0x00, 0xf1, 0x01, 0x00, 0x00, 0x1e, 0xca, 0xff, 0xff,
  0xd8, 0xfd, 0xff, 0xff, 0xc7, 0xca, 0xff, 0xff, 0x1d, 0x01, 0x00, 0x00,
  0x6c, 0x00, 0x00, 0x00, 0x2e, 0xd4, 0xff, 0xff, 0x04, 0x00, 0x00, 0x00,
  0x40, 0x00, 0x00, 0x00, 0xe9, 0xfd, 0xd2, 0xe1, 0xec, 0x23, 0x81, 0xf8,
  0x13, 0x5b, 0x02, 0x7f, 0x08, 0xfb, 0xf8, 0xdd, 0x7f, 0xfa, 0xde, 0xc7,
  0xb9, 0x31, 0x61, 0xc9, 0x0b, 0x81, 0x2a, 0xaf, 0x0e, 0xb0, 0x19, 0x39,
  0x7f, 0xfe, 0xc6, 0xf5, 0x1c, 0xfb, 0x83, 0xd1, 0x02, 0xdf, 0x02, 0x25,
  0x04, 0x81, 0xfe, 0x0a, 0x7f, 0xe5, 0x74, 0x03, 0x69, 0xdf, 0xf9, 0x05,
  0x81, 0xfc, 0xa4, 0xfd, 0x9b, 0x06, 0x20, 0x05, 0x7a, 0xd4, 0xff, 0xff,
  0x04, 0x00, 0x00, 0x00, 0x20, 0x00, 0x00, 0x00, 0x6d, 0x0e, 0x00, 0x00,
  0x22, 0xef, 0xff, 0xff, 0x9f, 0xfe, 0xff, 0xff, 0x77, 0x0a, 0x00, 0x00,
  0x75, 0x05, 0x00, 0x00, 0x1c, 0x00, 0x00, 0x00, 0xf0, 0xf4, 0xff, 0xff,
  0x7d, 0x0a, 0x00, 0x00, 0xa6, 0xd4, 0xff, 0xff, 0x04, 0x00, 0x00, 0x00,
  0x80, 0x01, 0x00, 0x00, 0x96, 0x96, 0x19, 0x81, 0xc4, 0xfd, 0xfd, 0xfc,
  0x81, 0xf4, 0x60, 0x01, 0xcd, 0x14, 0x02, 0x10, 0x14, 0xf0, 0x11, 0x7f,
  0x17, 0xec, 0xee, 0xfd, 0x99, 0xbc, 0xe4, 0xef, 0x2a, 0x7f, 0xd1, 0xde,
  0xfa, 0xe1, 0xf9, 0x00, 0xf7, 0x07, 0x81, 0xba, 0xfe, 0xdd, 0xf0, 0xfd,
  0xf5, 0x0b, 0x81, 0xb9, 0x7f, 0x08, 0x0e, 0xf5, 0xbd, 0x13, 0x01, 0xfc,
  0x81, 0xe2, 0xef, 0x05, 0x47, 0x0f, 0xff, 0x0a, 0x16, 0x2d, 0xf3, 0xf5,
  0xe4, 0x81, 0x2a, 0x10, 0x49, 0x16, 0xf5, 0xfb, 0xe7, 0xfc, 0xfa, 0x7f,
  0x70, 0xf6, 0x8d, 0x0b, 0xa7, 0xf4, 0x28, 0x7f, 0x81, 0x5e, 0x02, 0xd9,
  0x4b, 0xbb, 0x03, 0x1c, 0x7f, 0xdc, 0x96, 0x0a, 0x35, 0xfb, 0xf8, 0xea,
  0x7f, 0x09, 0x0c, 0xf1, 0xe2, 0x1d, 0x06, 0xf6, 0x82, 0xb5, 0x5d, 0xea,
  0x46, 0xf0, 0xd3, 0x81, 0x20, 0x4c, 0x02, 0xfe, 0xf4, 0x81, 0xea, 0x09,
  0xf5, 0xbe, 0x0c, 0x04, 0x0b, 0x7f, 0x0b, 0x06, 0x1a, 0x84, 0xb5, 0xf8,
  0xd9, 0x7f, 0xc4, 0xf2, 0x2b, 0xeb, 0xee, 0xec, 0xef, 0x1a, 0x7f, 0xf0,
  0xf9, 0x16, 0x00, 0x81, 0xf4, 0x22, 0xfc, 0xf6, 0xb4, 0xe2, 0x45, 0x07,
  0x38, 0x64, 0xf9, 0x81, 0xec, 0xf8, 0x1f, 0xe4, 0xee, 0x09, 0x81, 0xaf,
  0x46, 0xf7, 0x07, 0x7f, 0xf1, 0xfa, 0x39, 0x26, 0x7f, 0xf0, 0x8b, 0xf4,
  0x1e, 0xeb, 0x0d, 0x04, 0xe1, 0x13, 0x1a, 0x21, 0x0b, 0x03, 0x81, 0xab,
  0x7f, 0x0c, 0xaa, 0x07, 0x0f, 0xfa, 0x07, 0x19, 0xfe, 0x38, 0xe3, 0x81,
  0xe5, 0x16, 0x04, 0xfc, 0x7f, 0x17, 0x91, 0xff, 0x98, 0x2d, 0x13, 0x4d,
  0x81, 0xe8, 0xeb, 0x10, 0x35, 0x0d, 0xfd, 0x23, 0xf6, 0x82, 0xee, 0x81,
  0xf6, 0x1a, 0xf0, 0xe9, 0x06, 0x57, 0x7f, 0x24, 0x29, 0x9e, 0x72, 0x1f,
  0xb4, 0xf8, 0x81, 0x2a, 0x04, 0xed, 0x5d, 0x62, 0xfe, 0x86, 0x03, 0x81,
  0xf5, 0x0b, 0xf6, 0xef, 0x0e, 0x83, 0x01, 0x81, 0x0b, 0x0c, 0x06, 0xe2,
  0xe4, 0xca, 0x1d, 0x9d, 0x26, 0xcc, 0x7f, 0x52, 0x81, 0x0d, 0x34, 0x04,
  0x93, 0xeb, 0x1b, 0x63, 0x81, 0x0c, 0x76, 0xfe, 0xd8, 0x13, 0xe2, 0x24,
  0x7f, 0x0a, 0xf9, 0xf8, 0xb8, 0x15, 0x01, 0x10, 0xb3, 0x02, 0x51, 0x22,
  0x3e, 0xc5, 0x2e, 0x7f, 0x81, 0xfd, 0x4b, 0x00, 0xb8, 0x0b, 0xf6, 0x06,
  0xf8, 0x1c, 0x2a, 0xf0, 0x18, 0xfd, 0x7f, 0x30, 0x7f, 0xf3, 0xb6, 0x02,
  0x35, 0x0e, 0x07, 0xf9, 0xf3, 0x81, 0x21, 0xf7, 0x11, 0x07, 0xfd, 0xec,
  0x09, 0x7c, 0x7f, 0xfb, 0x36, 0x9c, 0x4f, 0x07, 0x06, 0xf3, 0xfd, 0x75,
  0x00, 0x81, 0xfe, 0x03, 0x7f, 0xe2, 0x21, 0xf8, 0xc4, 0x6b, 0x08, 0x01,
  0x0e, 0x7f, 0xee, 0x66, 0x01, 0x7d, 0x19, 0x27, 0xf6, 0x25, 0x0a, 0xe3,
  0x1e, 0xdb, 0x7f, 0x44, 0x32, 0xd6, 0xff, 0xff, 0x04, 0x00, 0x00, 0x00,
  0xc0, 0x00, 0x00, 0x00, 0x73, 0x25, 0x00, 0x00, 0xe1, 0x0f, 0x00, 0x00,
  0xcc, 0x13, 0x00, 0x00, 0x68, 0x07, 0x00, 0x00, 0xca, 0x0c, 0x00, 0x00,
  0xb8, 0x0d, 0x00, 0x00, 0x23, 0xf2, 0xff, 0xff, 0x33, 0x0e, 0x00, 0x00,
  0x83, 0x08, 0x00, 0x00, 0xcc, 0xf6, 0xff, 0xff, 0xa7, 0xf4, 0xff, 0xff,
  0x44, 0x12, 0x00, 0x00, 0xf3, 0xf4, 0xff, 0xff, 0x74, 0xf0, 0xff, 0xff,
  0xab, 0x1a, 0x00, 0x00, 0x74, 0x05, 0x00, 0x00, 0x3d, 0xf9, 0xff, 0xff,
  0xe4, 0x08, 0x00, 0x00, 0xd8, 0xf9, 0xff, 0xff, 0xd3, 0x0a, 0x00, 0x00,
  0x8d, 0x01, 0x00, 0x00, 0xe1, 0x0e, 0x00, 0x00, 0x29, 0xfb, 0xff, 0xff,
  0xa7, 0xf6, 0xff, 0xff, 0x89, 0xff, 0xff, 0xff, 0x4c, 0xef, 0xff, 0xff,
  0xb9, 0x08, 0x00, 0x00, 0xd5, 0xf1, 0xff, 0xff, 0xd3, 0x0c, 0x00, 0x00,
  0x34, 0x1a, 0x00, 0x00, 0xf5, 0x00, 0x00, 0x00, 0x17, 0x01, 0x00, 0x00,
  0x24, 0x19, 0x00, 0x00, 0x51, 0x22, 0x00, 0x00, 0xfa, 0x19, 0x00, 0x00,
  0x47, 0x0f, 0x00, 0x00, 0xb2, 0x11, 0x00, 0x00, 0xe8, 0xf0, 0xff, 0xff,
  0xd8, 0x04, 0x00, 0x00, 0xa8, 0x0f, 0x00, 0x00, 0x5b, 0xfd, 0xff, 0xff,
  0xbc, 0xf0, 0xff, 0xff, 0x9e, 0x0d, 0x00, 0x00, 0xc0, 0x06, 0x00, 0x00,
  0xc2, 0x00, 0x00, 0x00, 0x72, 0xea, 0xff, 0xff, 0xcb, 0xd8, 0xff, 0xff,
  0x59, 0x06, 0x00, 0x00, 0xfe, 0xd6, 0xff, 0xff, 0x04, 0x00, 0x00, 0x00,
  0xb0, 0x01, 0x00, 0x00, 0xea, 0xab, 0x94, 0x45, 0xaa, 0x03, 0xa5, 0xb7,
  0x37, 0x47, 0x74, 0xd9, 0x04, 0x0c, 0xaf, 0xbc, 0x60, 0xa6, 0x21, 0xcd,
  0xef, 0x94, 0xd7, 0xb8, 0x54, 0x53, 0x07, 0x88, 0x01, 0xdb, 0x39, 0x52,
  0x3a, 0x42, 0x3b, 0x14, 0x5a, 0x5e, 0x17, 0x0e, 0x8d, 0xf7, 0x1b, 0x29,
  0xd7, 0x40, 0xd3, 0xa4, 0x55, 0xfc, 0x21, 0x4b, 0x81, 0x29, 0xc4, 0x09,
  0x63, 0x63, 0x6b, 0x42, 0xf8, 0xba, 0x81, 0x97, 0x7b, 0xd6, 0x65, 0xa5,
  0x98, 0x7f, 0x7f, 0x23, 0x7f, 0x5d, 0x33, 0x8e, 0xac, 0xcc, 0x94, 0x74,
  0x6c, 0x7f, 0x5a, 0x67, 0xeb, 0x65, 0x3d, 0xb9, 0xae, 0xae, 0x12, 0xc7,
  0xc7, 0x62, 0xc7, 0x66, 0x6f, 0x01, 0x3f, 0x42, 0xb1, 0x0c, 0xdc, 0xfc,
  0x1a, 0x42, 0xf8, 0xe3, 0xb3, 0x01, 0xd8, 0xd5, 0x22, 0x53, 0x42, 0xf6,
  0xca, 0xe7, 0xae, 0x4f, 0x2b, 0x17, 0x1b, 0xd5, 0x00, 0xd5, 0x1a, 0x28,
  0x35, 0x59, 0x0b, 0x40, 0xfa, 0x1b, 0x2f, 0xfa, 0xc9, 0xfc, 0xff, 0x0b,
  0xec, 0x31, 0xea, 0x00, 0x27, 0x81, 0x74, 0x60, 0x57, 0xb8, 0x81, 0x81,
  0x6d, 0x54, 0x79, 0xcc, 0x07, 0xff, 0x9c, 0x9e, 0x5b, 0x7f, 0x32, 0x98,
  0xd8, 0x71, 0x1d, 0x81, 0x61, 0x6a, 0x6e, 0x81, 0xf8, 0x8d, 0xb3, 0x5d,
  0x6d, 0xff, 0x66, 0x36, 0x20, 0x74, 0x32, 0x03, 0xf9, 0xeb, 0x5e, 0x5e,
  0x92, 0x76, 0x87, 0x6d, 0x7f, 0xfb, 0x00, 0x7f, 0x77, 0x81, 0x9a, 0x03,
  0x7f, 0x7f, 0x7f, 0x3d, 0xe3, 0x81, 0x91, 0x81, 0x7f, 0x3b, 0x7f, 0x81,
  0x81, 0x85, 0x8f, 0x32, 0x6b, 0x7f, 0x7f, 0x87, 0x81, 0x81, 0x7f, 0x7f,
  0x7f, 0x05, 0x7f, 0x7f, 0xfa, 0x7f, 0x7f, 0x81, 0x0d, 0x81, 0x7f, 0xab,
  0x81, 0x7f, 0x81, 0x81, 0x68, 0xfe, 0x81, 0x4f, 0x54, 0xc5, 0xd8, 0xfc,
  0x18, 0x4a, 0x06, 0xee, 0x81, 0x01, 0xe2, 0xe0, 0x24, 0x98, 0x53, 0xda,
  0xbb, 0x0a, 0x4b, 0x4e, 0x36, 0x30, 0xfd, 0xcc, 0xf5, 0xae, 0xdb, 0x1e,
  0x2c, 0xfa, 0x1d, 0x45, 0xff, 0x0d, 0x4c, 0xfe, 0xec, 0xfb, 0x2b, 0xf5,
  0xb9, 0x2a, 0xc5, 0x0f, 0x36, 0xb4, 0x02, 0x18, 0xfd, 0x40, 0xb1, 0xb2,
  0x1f, 0x07, 0x16, 0x39, 0x0c, 0x08, 0xd0, 0xd9, 0x0b, 0xd7, 0x18, 0xba,
  0xec, 0x01, 0x10, 0xb4, 0x16, 0x19, 0x47, 0xf0, 0x06, 0x94, 0x0c, 0x16,
  0x48, 0xb2, 0x47, 0x14, 0x81, 0x1e, 0x01, 0x01, 0x1c, 0xfe, 0x5c, 0x81,
  0xb8, 0x2f, 0xb1, 0xf7, 0x2d, 0x0a, 0x02, 0x38, 0x07, 0x5a, 0xdc, 0x00,
  0x18, 0x2b, 0x0f, 0x81, 0xf5, 0xa7, 0xdd, 0xd7, 0x24, 0xf1, 0x2b, 0x9b,
  0xda, 0xf5, 0xe7, 0x22, 0x19, 0x32, 0x4b, 0xd2, 0xae, 0x83, 0xe2, 0x19,
  0x42, 0xaa, 0x43, 0x1d, 0x13, 0x2a, 0x39, 0xce, 0x7f, 0xc1, 0x7c, 0x64,
  0x96, 0x30, 0x81, 0x12, 0xe3, 0xfb, 0xfc, 0x29, 0xec, 0x26, 0xe7, 0x02,
  0x08, 0x0b, 0xbf, 0x2c, 0xc0, 0x03, 0xf6, 0xfe, 0xfc, 0x17, 0x25, 0xf9,
  0xdc, 0x17, 0x12, 0x25, 0x1c, 0x1d, 0x16, 0x06, 0xfc, 0xcc, 0x0d, 0xf7,
  0x05, 0xd2, 0x11, 0x12, 0x06, 0xef, 0x2c, 0x0b, 0x3f, 0x06, 0x18, 0xf3,
  0xe6, 0x17, 0xdd, 0xff, 0xba, 0xd8, 0xff, 0xff, 0x04, 0x00, 0x00, 0x00,
  0xc0, 0x00, 0x00, 0x00, 0x72, 0x00, 0x00, 0x00, 0x3e, 0x1c, 0x00, 0x00,
  0x2b, 0x05, 0x00, 0x00, 0xc1, 0x03, 0x00, 0x00, 0x13, 0x03, 0x00, 0x00,
  0xdc, 0x01, 0x00, 0x00, 0x86, 0x1f, 0x00, 0x00, 0x7c, 0x1b, 0x00, 0x00,
  0x1b, 0x0e, 0x00, 0x00, 0xfa, 0xea, 0xff, 0xff, 0xd9, 0x00, 0x00, 0x00,
  0x32, 0x01, 0x00, 0x00, 0x77, 0x16, 0x00, 0x00, 0x90, 0x12, 0x00, 0x00,
  0x8a, 0x4f, 0x00, 0x00, 0xa5, 0x3d, 0x00, 0x00, 0xa4, 0xfa, 0xff, 0xff,
  0x18, 0xfe, 0xff, 0xff, 0x57, 0x10, 0x00, 0x00, 0x72, 0x14, 0x00, 0x00,
  0xe2, 0x3d, 0x00, 0x00, 0x2a, 0xff, 0xff, 0xff, 0x7b, 0xff, 0xff, 0xff,
  0xf6, 0xfd, 0xff, 0xff, 0x05, 0x1b, 0x00, 0x00, 0x99, 0x03, 0x00, 0x00,
  0x81, 0x16, 0x00, 0x00, 0x1f, 0x47, 0x00, 0x00, 0xeb, 0x1b, 0x00, 0x00,
  0xc6, 0x2d, 0x00, 0x00, 0x47, 0x01, 0x00, 0x00, 0x24, 0x0a, 0x00, 0x00,
  0xb0, 0xfb, 0xff, 0xff, 0x50, 0xf1, 0xff, 0xff, 0x4c, 0x01, 0x00, 0x00,
  0x54, 0xff, 0xff, 0xff, 0x6b, 0x01, 0x00, 0x00, 0x2e, 0x00, 0x00, 0x00,
  0x4f, 0x03, 0x00, 0x00, 0x57, 0x0e, 0x00, 0x00, 0xb0, 0x0b, 0x00, 0x00,
  0x25, 0x0f, 0x00, 0x00, 0xee, 0xe8, 0xff, 0xff, 0x65, 0x04, 0x00, 0x00,
  0x17, 0xfd, 0xff, 0xff, 0x13, 0x00, 0x00, 0x00, 0xfb, 0x2d, 0x00, 0x00,
  0x38, 0xfe, 0xff, 0xff, 0x86, 0xd9, 0xff, 0xff, 0x04, 0x00, 0x00, 0x00,
  0x80, 0x01, 0x00, 0x00, 0x2f, 0x67, 0xd7, 0x48, 0xfe, 0xf9, 0xec, 0x07,
  0x3b, 0xc2, 0x04, 0xe4, 0x09, 0x09, 0xe0, 0xcd, 0x01, 0xec, 0x1e, 0x10,
  0xc9, 0xe1, 0xde, 0x08, 0x0e, 0x0c, 0x17, 0xfc, 0x0e, 0x08, 0xeb, 0x1a,
  0xc1, 0x09, 0x6e, 0x81, 0xe9, 0x16, 0xf1, 0x6f, 0xe2, 0x0e, 0x0e, 0xfd,
  0xf3, 0x25, 0x1a, 0xd3, 0x00, 0xd1, 0x26, 0x36, 0xf4, 0xf1, 0xee, 0xeb,
  0x33, 0xd6, 0x62, 0x2f, 0x17, 0x0d, 0xd3, 0xa9, 0x7f, 0x2b, 0x0f, 0x09,
  0xb9, 0x22, 0x26, 0xef, 0xce, 0x9d, 0xe1, 0xca, 0xf1, 0xc4, 0x2d, 0xd4,
  0xf7, 0xeb, 0xde, 0x0b, 0x07, 0xee, 0x58, 0xc8, 0xf4, 0x24, 0xbf, 0x28,
  0x4f, 0x3e, 0x0e, 0x33, 0x4a, 0xe7, 0xf0, 0xf2, 0x6b, 0x6d, 0x39, 0x4d,
  0xe0, 0xf6, 0xfd, 0xe1, 0xf6, 0x2a, 0x38, 0x1a, 0xe6, 0xdf, 0x3e, 0xbf,
  0xd4, 0xd0, 0xd7, 0x3e, 0xa2, 0xa5, 0x77, 0x14, 0x3e, 0xbc, 0xc5, 0x16,
  0x81, 0x53, 0x67, 0x10, 0xf9, 0xfe, 0xf7, 0x14, 0x1b, 0x40, 0x11, 0xc2,
  0xeb, 0x14, 0x37, 0xd4, 0x55, 0xdd, 0x0c, 0xf9, 0x7d, 0x7f, 0x1f, 0x2c,
  0xdf, 0xe6, 0x1a, 0x39, 0x85, 0x2d, 0x40, 0x14, 0x04, 0x0f, 0x4f, 0x8e,
  0xa4, 0x15, 0x27, 0x56, 0x06, 0xd9, 0x39, 0x20, 0x2e, 0xc1, 0x06, 0xf9,
  0x8d, 0x42, 0xc4, 0x8a, 0x1b, 0xd7, 0x45, 0xca, 0x31, 0xa3, 0x96, 0xe7,
  0xc1, 0x29, 0xf6, 0x42, 0x27, 0x2a, 0xe5, 0xd7, 0xf2, 0xf4, 0xec, 0xef,
  0x06, 0xfe, 0xfb, 0xf2, 0xe0, 0xec, 0x42, 0x37, 0xd9, 0xed, 0xdd, 0x2f,
  0x20, 0xf2, 0xf0, 0x04, 0xd0, 0xd7, 0xfa, 0x38, 0xf5, 0x0e, 0xe8, 0x1c,
  0xe1, 0xf2, 0x1b, 0x81, 0xf5, 0x1a, 0x0e, 0x38, 0x09, 0xf4, 0xf7, 0xe7,
  0x2c, 0x03, 0x59, 0xea, 0x43, 0x3d, 0xa4, 0x31, 0x04, 0x03, 0xf7, 0x1f,
  0xa8, 0xc4, 0xc6, 0xe8, 0x22, 0x16, 0x2e, 0x1d, 0x2a, 0xbf, 0x2a, 0x7f,
  0xba, 0xce, 0xc5, 0x30, 0x1e, 0xe8, 0xd9, 0x43, 0x23, 0x1e, 0xc6, 0x00,
  0xfd, 0x03, 0xc6, 0xfe, 0xf7, 0x12, 0xe6, 0x48, 0x11, 0x4d, 0xf8, 0xd5,
  0x7d, 0x1c, 0x11, 0xc1, 0xe0, 0xb9, 0x11, 0xd4, 0xd6, 0xd7, 0xb0, 0xb3,
  0xd9, 0xc2, 0x8d, 0x27, 0xc7, 0xcd, 0x62, 0x59, 0x81, 0x09, 0x15, 0xea,
  0x12, 0x38, 0x44, 0x0a, 0xf2, 0xf6, 0xb8, 0x54, 0xac, 0xd7, 0x2b, 0x4d,
  0x0f, 0xc5, 0x59, 0x23, 0x1a, 0x2d, 0xf2, 0xac, 0xef, 0xc2, 0xe3, 0x0f,
  0xd6, 0xed, 0xf6, 0x3e, 0x4c, 0x13, 0xee, 0x2c, 0x0f, 0x0d, 0x0a, 0x03,
  0x4f, 0xf6, 0xf1, 0xed, 0x3a, 0x05, 0xf2, 0xed, 0xcd, 0xf9, 0xe4, 0x03,
  0xff, 0xec, 0xe9, 0xe4, 0x47, 0x81, 0x0f, 0x01, 0xff, 0x61, 0xee, 0x14,
  0xb4, 0x14, 0xc4, 0xd4, 0xf0, 0x1a, 0x1c, 0x17, 0x16, 0x43, 0xdf, 0xef,
  0xd5, 0x1f, 0x2a, 0xe7, 0x12, 0xdb, 0xff, 0xff, 0x04, 0x00, 0x00, 0x00,
  0x20, 0x00, 0x00, 0x00, 0xb0, 0xd3, 0xff, 0xff, 0xd7, 0x08, 0x00, 0x00,
  0x52, 0xc2, 0xff, 0xff, 0x51, 0x03, 0x00, 0x00, 0xf6, 0x08, 0x00, 0x00,
  0x8d, 0xf4, 0xff, 0xff, 0xf1, 0x2b, 0x00, 0x00, 0x54, 0x01, 0x00, 0x00,
  0x3e, 0xdb, 0xff, 0xff, 0x04, 0x00, 0x00, 0x00, 0x80, 0x01, 0x00, 0x00,
  0xed, 0x1b, 0x0a, 0x81, 0xa8, 0x07, 0x1c, 0x72, 0x65, 0x04, 0xf6, 0x07,
  0xa0, 0x2b, 0x7f, 0x1d, 0xfe, 0x72, 0xd3, 0xde, 0xdd, 0x5f, 0xc8, 0x81,
  0x39, 0xbf, 0xab, 0x73, 0x81, 0xda, 0xfd, 0xed, 0x25, 0xc5, 0x2e, 0xed,
  0x81, 0x02, 0x30, 0x1d, 0xec, 0x37, 0xf4, 0xa1, 0x81, 0xfd, 0xe2, 0x06,
  0x2d, 0xf4, 0x23, 0x1d, 0x7f, 0xe6, 0xfc, 0x81, 0x0d, 0x24, 0x18, 0x7f,
  0x15, 0xf7, 0xfe, 0x18, 0x16, 0x1b, 0x0b, 0xd0, 0x25, 0x7f, 0x09, 0xe3,
  0x73, 0x20, 0xf3, 0x0f, 0xc1, 0xcc, 0x7f, 0x50, 0x00, 0x49, 0xb7, 0xdc,
  0x03, 0x7f, 0x56, 0xc4, 0xed, 0xe1, 0x81, 0x60, 0xc2, 0x1c, 0xf2, 0x4e,
  0xa5, 0xb0, 0x3a, 0x33, 0x19, 0x81, 0xdb, 0x05, 0x2b, 0x1f, 0x21, 0x37,
  0xc7, 0x7f, 0x11, 0xd5, 0x08, 0xa6, 0x02, 0xf8, 0xc4, 0xb8, 0x81, 0x64,
  0xab, 0x28, 0xfd, 0x08, 0x56, 0xfa, 0x81, 0xd7, 0x5a, 0x47, 0x9b, 0x81,
  0x3a, 0x72, 0x66, 0x1c, 0x91, 0x7f, 0x81, 0x31, 0xf0, 0xe2, 0x1b, 0x89,
  0x22, 0xfe, 0xa6, 0x7f, 0xf4, 0xdc, 0xda, 0xc8, 0x70, 0x12, 0x0b, 0x17,
  0xdc, 0x0d, 0x7f, 0x29, 0x26, 0xb6, 0xab, 0x7f, 0x2d, 0xe2, 0xe6, 0xc3,
  0x16, 0x32, 0x7f, 0x97, 0x2c, 0xe5, 0x1c, 0x9a, 0xb4, 0xe1, 0x81, 0x3e,
  0xe0, 0x20, 0x0c, 0x6e, 0x52, 0x16, 0x21, 0x28, 0x81, 0x6f, 0x3d, 0xdc,
  0xf4, 0x04, 0x81, 0x55, 0xd6, 0x1b, 0x29, 0x48, 0x36, 0xd8, 0xb2, 0x7f,
  0x3d, 0x03, 0xda, 0xed, 0xaa, 0x1a, 0x7f, 0x96, 0xf1, 0x20, 0x3f, 0xf8,
  0xc0, 0x4d, 0x7f, 0x04, 0x12, 0xf4, 0x4d, 0x0f, 0xcb, 0xa1, 0x22, 0x81,
  0xf1, 0x0c, 0xfc, 0xe8, 0xb8, 0xba, 0xf2, 0x5a, 0xf5, 0x81, 0xf8, 0x31,
  0x81, 0x33, 0x74, 0xe7, 0x2a, 0x28, 0x44, 0x1a, 0xc5, 0x31, 0x50, 0x81,
  0xd6, 0x12, 0x20, 0x3d, 0xae, 0x54, 0x60, 0x87, 0x13, 0x00, 0x03, 0x7f,
  0x02, 0x6d, 0xd4, 0x36, 0x13, 0x0d, 0x81, 0xe9, 0x5b, 0x10, 0x7f, 0x8f,
  0x9b, 0x90, 0x36, 0xcc, 0x50, 0xfe, 0x23, 0x6c, 0x4c, 0xba, 0x20, 0x81,
  0x19, 0x3e, 0x7f, 0x98, 0x18, 0xe6, 0x2d, 0x8c, 0xcd, 0xd2, 0x68, 0x42,
  0x00, 0x81, 0x5e, 0xef, 0x55, 0xfc, 0x50, 0x2b, 0xe7, 0xd4, 0x7f, 0x10,
  0x39, 0xa8, 0xea, 0x0e, 0x81, 0x0a, 0x4c, 0x42, 0xda, 0x2b, 0x81, 0x6e,
  0xc9, 0x35, 0xb2, 0x76, 0x90, 0xee, 0xcd, 0xfe, 0x7f, 0x13, 0x9d, 0x10,
  0xaa, 0x43, 0xe8, 0xe2, 0x7f, 0x22, 0x88, 0xd0, 0x7f, 0x6a, 0xd9, 0x77,
  0xff, 0x9d, 0x2e, 0x4a, 0xfc, 0x14, 0x5f, 0x0a, 0x22, 0x81, 0x15, 0xe8,
  0xf7, 0xb6, 0x7f, 0x52, 0xdd, 0xea, 0x8a, 0x13, 0x2c, 0x8c, 0x81, 0x32,
  0xb2, 0x1c, 0xfb, 0xec, 0x8c, 0xe9, 0x2e, 0xf9, 0x4c, 0x28, 0x81, 0xd9,
  0xca, 0xdc, 0xff, 0xff, 0x04, 0x00, 0x00, 0x00, 0xc0, 0x00, 0x00, 0x00,
  0xc0, 0x18, 0x00, 0x00, 0x26, 0x08, 0x00, 0x00, 0xd9, 0x5e, 0x00, 0x00,
  0x27, 0xf8, 0xff, 0xff, 0x00, 0xfc, 0xff, 0xff, 0x61, 0x1e, 0x00, 0x00,
  0xce, 0xfb, 0xff, 0xff, 0xf1, 0x03, 0x00, 0x00, 0xcd, 0x0b, 0x00, 0x00,
  0x7b, 0x00, 0x00, 0x00, 0x46, 0x1e, 0x00, 0x00, 0x64, 0x02, 0x00, 0x00,
  0x83, 0x09, 0x00, 0x00, 0xc9, 0x0f, 0x00, 0x00, 0x2d, 0x0c, 0x00, 0x00,
  0x3d, 0x0d, 0x00, 0x00, 0x0e, 0x0d, 0x00, 0x00, 0x8c, 0x09, 0x00, 0x00,
  0x00, 0xfd, 0xff, 0xff, 0xcf, 0x10, 0x00, 0x00, 0xf2, 0x05, 0x00, 0x00,
  0xa8, 0x01, 0x00, 0x00, 0xf8, 0x04, 0x00, 0x00, 0x8b, 0x2b, 0x00, 0x00,
  0x5c, 0x73, 0x00, 0x00, 0xa3, 0x16, 0x00, 0x00, 0xba, 0x0f, 0x00, 0x00,
  0x6a, 0xfa, 0xff, 0xff, 0xa0, 0xff, 0xff, 0xff, 0xca, 0x18, 0x00, 0x00,
  0xd5, 0x1a, 0x00, 0x00, 0x1f, 0x25, 0x00, 0x00, 0x37, 0x37, 0x00, 0x00,
  0xde, 0x10, 0x00, 0x00, 0x24, 0x19, 0x00, 0x00, 0x92, 0xfb, 0xff, 0xff,
  0xe6, 0x01, 0x00, 0x00, 0x99, 0x08, 0x00, 0x00, 0xbe, 0x1c, 0x00, 0x00,
  0x47, 0x15, 0x00, 0x00, 0xad, 0x03, 0x00, 0x00, 0x3d, 0x2c, 0x00, 0x00,
  0xab, 0x2e, 0x00, 0x00, 0x3d, 0x0d, 0x00, 0x00, 0x6d, 0x18, 0x00, 0x00,
  0x81, 0x08, 0x00, 0x00, 0xbe, 0x0e, 0x00, 0x00, 0x27, 0x02, 0x00, 0x00,
  0x96, 0xdd, 0xff, 0xff, 0x04, 0x00, 0x00, 0x00, 0xb0, 0x01, 0x00, 0x00,
  0xf9, 0xd0, 0x2a, 0xdd, 0x7f, 0xfd, 0xf6, 0xf7, 0xdd, 0x2a, 0xf1, 0x05,
  0x3d, 0x16, 0x7f, 0xdb, 0x0f, 0xec, 0xde, 0xf4, 0xe2, 0xec, 0xc0, 0x1e,
  0x81, 0x2b, 0x1c, 0xd9, 0xf4, 0x17, 0xec, 0xfc, 0xdc, 0x1c, 0x13, 0x03,
  0x54, 0x38, 0x23, 0xf7, 0x42, 0x12, 0xf5, 0xf9, 0x9a, 0xf2, 0xd8, 0xdf,
  0x03, 0x98, 0xbc, 0xdc, 0xc8, 0xfd, 0x26, 0x1a, 0x0f, 0xfc, 0x3d, 0x7f,
  0xf3, 0x3a, 0xb4, 0x7f, 0xfd, 0xbe, 0x1f, 0xd2, 0xba, 0x81, 0xaf, 0x54,
  0x85, 0xad, 0x17, 0x79, 0x11, 0x26, 0x7b, 0x0a, 0x81, 0x86, 0xd3, 0x29,
  0x7f, 0xad, 0x7e, 0x08, 0x34, 0xf8, 0xec, 0xf6, 0xc7, 0xec, 0x48, 0x04,
  0x0b, 0xec, 0xf6, 0x7f, 0x2c, 0x0a, 0xb0, 0x01, 0xe5, 0xd4, 0xe7, 0xe9,
  0x30, 0x02, 0xbb, 0xd5, 0x16, 0x1c, 0xfe, 0xfa, 0x03, 0xff, 0xe6, 0x13,
  0xd0, 0xc4, 0xe7, 0x26, 0xfe, 0x20, 0xa3, 0xf6, 0x09, 0x4d, 0x13, 0x18,
  0x03, 0x4d, 0x81, 0xfe, 0x1a, 0xff, 0xfa, 0x1e, 0x81, 0xfb, 0xc2, 0x2f,
  0x90, 0xbb, 0x7f, 0xf4, 0xd0, 0xdc, 0x4d, 0x16, 0x12, 0x5b, 0x07, 0x10,
  0x2d, 0x21, 0x6b, 0x1f, 0x22, 0x81, 0x5d, 0x2b, 0x4e, 0xf5, 0x32, 0xdc,
  0xf1, 0xed, 0x27, 0xd3, 0x15, 0x37, 0x22, 0x35, 0x20, 0x95, 0x05, 0x7f,
  0x0b, 0x30, 0xd7, 0x8c, 0x18, 0x5f, 0xef, 0xa5, 0x1a, 0xab, 0xbf, 0x17,
  0x7f, 0xbc, 0xb8, 0xae, 0xfc, 0x81, 0x7f, 0x7f, 0x7f, 0x0e, 0x7f, 0xd6,
  0x81, 0x14, 0xd7, 0xd7, 0x7f, 0x97, 0x7f, 0x7f, 0x7f, 0x4f, 0x7f, 0x81,
  0x03, 0xea, 0x70, 0xee, 0x7f, 0x7f, 0x81, 0x7f, 0x1a, 0x81, 0x7f, 0xa1,
  0xc0, 0x7f, 0x9d, 0x77, 0x81, 0x81, 0x7f, 0x81, 0x61, 0x81, 0x7f, 0x8b,
  0xf3, 0x91, 0x0c, 0x48, 0xe1, 0xf9, 0xd0, 0x0b, 0xf2, 0x81, 0xdc, 0x31,
  0x49, 0x11, 0xc1, 0x2e, 0x18, 0x04, 0xfc, 0x12, 0x02, 0xe7, 0x2c, 0xec,
  0xfd, 0x0c, 0x81, 0x53, 0xbc, 0x0c, 0x4e, 0x0f, 0xf0, 0x9b, 0xf1, 0xdb,
  0x3f, 0x12, 0x7f, 0x08, 0x16, 0x39, 0xd6, 0x0a, 0x36, 0xe0, 0xc3, 0x7f,
  0xfc, 0x77, 0x1c, 0xdb, 0x49, 0x0f, 0xd6, 0xf2, 0xe1, 0x0f, 0xf5, 0xfd,
  0x32, 0x19, 0x65, 0x09, 0xf1, 0xfc, 0xf6, 0xd7, 0xef, 0x08, 0x01, 0x10,
  0xe3, 0xf1, 0x1f, 0x06, 0xd0, 0x9a, 0xf4, 0xfc, 0xf7, 0x2f, 0xf1, 0x23,
  0xca, 0x2c, 0x10, 0x65, 0x0d, 0x15, 0xfe, 0x05, 0x13, 0xf9, 0xea, 0xdd,
  0x03, 0x60, 0xd3, 0x0c, 0x17, 0xde, 0x00, 0x21, 0x1e, 0x0c, 0x14, 0xdb,
  0x1e, 0x7f, 0xb6, 0xb6, 0x00, 0xdc, 0x64, 0xb8, 0xd3, 0x49, 0x00, 0x38,
  0x48, 0x7f, 0x06, 0x7f, 0xc1, 0x99, 0xee, 0xff, 0x56, 0x8d, 0xb0, 0x04,
  0xbf, 0xd8, 0xe6, 0x81, 0x32, 0xed, 0xca, 0x51, 0x30, 0x0f, 0x0d, 0x0c,
  0x0f, 0x7f, 0xf3, 0x1d, 0x15, 0x0b, 0xc4, 0xfe, 0xea, 0xed, 0xf9, 0xf6,
  0x2f, 0x03, 0xbb, 0xff, 0xf9, 0x01, 0xdf, 0xea, 0xf9, 0x02, 0xfe, 0x05,
  0xce, 0x21, 0xd7, 0x14, 0x29, 0xb8, 0x0f, 0xff, 0x03, 0x3b, 0x04, 0xf1,
  0xd6, 0x39, 0x0c, 0xff, 0xe4, 0xfd, 0x03, 0xf1, 0x0c, 0xff, 0xfb, 0x23,
  0x52, 0xdf, 0xff, 0xff, 0x04, 0x00, 0x00, 0x00, 0xc0, 0x00, 0x00, 0x00,
  0x8f, 0xfc, 0xff, 0xff, 0x65, 0x08, 0x00, 0x00, 0x77, 0x00, 0x00, 0x00,
  0x5e, 0x02, 0x00, 0x00, 0x1a, 0x03, 0x00, 0x00, 0x7b, 0x21, 0x00, 0x00,
  0xd2, 0xfe, 0xff, 0xff, 0x5c, 0xf2, 0xff, 0xff, 0x04, 0xee, 0xff, 0xff,
  0x60, 0xfd, 0xff, 0xff, 0x3f, 0xe9, 0xff, 0xff, 0x05, 0x00, 0x00, 0x00,
  0xae, 0xf3, 0xff, 0xff, 0x1b, 0xe5, 0xff, 0xff, 0x8d, 0x00, 0x00, 0x00,
  0xb3, 0xfd, 0xff, 0xff, 0x23, 0xdd, 0xff, 0xff, 0x18, 0x3a, 0x00, 0x00,
  0x5c, 0xf4, 0xff, 0xff, 0x52, 0xfd, 0xff, 0xff, 0xf1, 0xfb, 0xff, 0xff,
  0xa3, 0x01, 0x00, 0x00, 0x4f, 0xfa, 0xff, 0xff, 0x8d, 0xfb, 0xff, 0xff,
  0x1e, 0x50, 0x00, 0x00, 0x31, 0xfe, 0xff, 0xff, 0x16, 0xfc, 0xff, 0xff,
  0x43, 0xfb, 0xff, 0xff, 0xbc, 0xff, 0xff, 0xff, 0xe2, 0xfd, 0xff, 0xff,
  0xa9, 0x02, 0x00, 0x00, 0x75, 0xe3, 0xff, 0xff, 0x21, 0x04, 0x00, 0x00,
  0x8e, 0x2f, 0x00, 0x00, 0x05, 0xfd, 0xff, 0xff, 0x17, 0x15, 0x00, 0x00,
  0xb9, 0xfc, 0xff, 0xff, 0xf1, 0xf3, 0xff, 0xff, 0xca, 0xfb, 0xff, 0xff,
  0x28, 0x02, 0x00, 0x00, 0x0b, 0xf2, 0xff, 0xff, 0x28, 0xfa, 0xff, 0xff,
  0x87, 0x0c, 0x00, 0x00, 0x56, 0x16, 0x00, 0x00, 0xd6, 0x03, 0x00, 0x00,
  0x89, 0x23, 0x00, 0x00, 0x6a, 0x02, 0x00, 0x00, 0xdb, 0xf4, 0xff, 0xff,
  0x1e, 0xe0, 0xff, 0xff, 0x04, 0x00, 0x00, 0x00, 0x80, 0x01, 0x00, 0x00,
  0x22, 0xce, 0x61, 0x43, 0x20, 0xd6, 0x13, 0x0a, 0xfa, 0x35, 0xdf, 0x10,
  0xd1, 0xb2, 0x25, 0x01, 0x93, 0x3d, 0xdd, 0x40, 0xd1, 0x44, 0x01, 0xe6,
  0xfc, 0xd0, 0x40, 0xe5, 0xe6, 0x15, 0xe0, 0x6c, 0xc0, 0xf4, 0xdc, 0xac,
  0xc0, 0xd3, 0xd8, 0xf0, 0xf7, 0x39, 0x81, 0x09, 0x32, 0x15, 0x17, 0x31,
  0xc8, 0xe2, 0x3c, 0xf9, 0xe6, 0x1f, 0xda, 0xe1, 0x2b, 0xf5, 0xfb, 0xe4,
  0xf0, 0x0c, 0x02, 0x17, 0x00, 0x15, 0x0e, 0xf6, 0xc8, 0xe1, 0xbb, 0xe8,
  0x17, 0xdd, 0xe0, 0xde, 0x18, 0xbc, 0xf7, 0x81, 0xf9, 0xc5, 0xbc, 0xba,
  0xd5, 0xad, 0xe6, 0x15, 0x2b, 0xed, 0x53, 0x99, 0xd0, 0xf0, 0xe7, 0xfa,
  0xc3, 0x58, 0xf9, 0x26, 0x13, 0x07, 0x13, 0xdf, 0x46, 0xd3, 0x42, 0x50,
  0x62, 0x10, 0x20, 0xc5, 0x5b, 0xfd, 0x0a, 0x1c, 0xef, 0x12, 0x0f, 0x7f,
  0x90, 0xd5, 0x05, 0xef, 0xff, 0x52, 0xee, 0xaf, 0xeb, 0xff, 0x06, 0xb6,
  0xea, 0x0b, 0xde, 0xf0, 0x55, 0xad, 0x18, 0xfc, 0x1b, 0x88, 0xfc, 0xee,
  0x38, 0xeb, 0xc3, 0x20, 0x55, 0xb0, 0x01, 0x85, 0xdb, 0xf7, 0xc4, 0xa8,
  0xe6, 0x7f, 0xf1, 0x10, 0xd6, 0xec, 0xbd, 0xcb, 0x1d, 0x54, 0xf2, 0xc7,
  0x70, 0x2b, 0x31, 0xb9, 0x22, 0x9e, 0x34, 0xbc, 0x38, 0x40, 0x6d, 0xb5,
  0xce, 0x10, 0xe0, 0x29, 0x15, 0x53, 0xb3, 0x1f, 0xfc, 0x1e, 0x03, 0x22,
  0xce, 0x1e, 0xd4, 0x44, 0x5d, 0xe5, 0x1f, 0xcf, 0xdc, 0xf8, 0xc4, 0x21,
  0xcf, 0xee, 0x03, 0xc5, 0x10, 0x43, 0xdc, 0xd9, 0xd2, 0x22, 0xba, 0xbb,
  0x17, 0xf5, 0x19, 0xd6, 0x23, 0xda, 0xdd, 0x3e, 0xf7, 0x4c, 0xb5, 0xaf,
  0xbd, 0xbc, 0xd6, 0xfe, 0x42, 0xcc, 0x7f, 0x1b, 0x03, 0x5c, 0xcb, 0xce,
  0x39, 0x06, 0x54, 0xf7, 0xfc, 0x12, 0x34, 0x21, 0x7f, 0x01, 0x47, 0xfe,
  0x47, 0x38, 0x1a, 0xc0, 0xf4, 0x1f, 0x21, 0xd2, 0xc7, 0xb9, 0x0d, 0x2e,
  0x17, 0xf5, 0x1c, 0x2b, 0xd8, 0xe2, 0x12, 0xea, 0xec, 0x34, 0xed, 0x3d,
  0x35, 0x01, 0xe5, 0xd3, 0xf5, 0x44, 0x26, 0x27, 0xef, 0xfa, 0x4a, 0x0a,
  0xf5, 0xbb, 0xf0, 0x0d, 0x28, 0xf6, 0xfc, 0x0f, 0xcc, 0xea, 0x6b, 0x38,
  0x64, 0x49, 0xda, 0x30, 0x75, 0x81, 0xed, 0xfb, 0xf2, 0xd7, 0x97, 0x26,
  0xaf, 0x46, 0xd6, 0x00, 0xf0, 0xcd, 0x47, 0xcd, 0x62, 0x10, 0xb5, 0xeb,
  0xd5, 0x07, 0x3a, 0x05, 0x4e, 0xb3, 0x00, 0xae, 0x8f, 0x2e, 0xce, 0x15,
  0xf2, 0xe9, 0xc6, 0xe0, 0x15, 0x6c, 0x00, 0xfd, 0xfc, 0xc9, 0x81, 0x9b,
  0x2f, 0x39, 0xc5, 0xcd, 0xde, 0x1a, 0x6e, 0x17, 0xf3, 0xb1, 0x3b, 0xf2,
  0x70, 0xe2, 0xb0, 0x5e, 0xd7, 0xfb, 0xe8, 0xab, 0xce, 0x49, 0x34, 0x7b,
  0x5c, 0xc7, 0xea, 0xd9, 0xea, 0xfc, 0x2a, 0xed, 0xfc, 0xe3, 0x06, 0xc5,
  0xaa, 0xe1, 0xff, 0xff, 0x04, 0x00, 0x00, 0x00, 0x20, 0x00, 0x00, 0x00,
  0xb0, 0x2b, 0x00, 0x00, 0xa9, 0x38, 0x00, 0x00, 0x94, 0x13, 0x00, 0x00,
  0x14, 0x15, 0x00, 0x00, 0x6e, 0x07, 0x00, 0x00, 0xa0, 0xca, 0xff, 0xff,
  0x9d, 0x17, 0x00, 0x00, 0xe0, 0xe1, 0xff, 0xff, 0xd6, 0xe1, 0xff, 0xff,
  0x04, 0x00, 0x00, 0x00, 0x80, 0x01, 0x00, 0x00, 0x29, 0x17, 0xc9, 0x0b,
  0xd8, 0x31, 0x81, 0x19, 0x00, 0xc8, 0x88, 0x01, 0xfd, 0xec, 0x7f, 0x96,
  0x81, 0xca, 0xbd, 0xd1, 0xda, 0x3a, 0x89, 0xff, 0xc4, 0xdb, 0x16, 0xf4,
  0xe9, 0x81, 0x8e, 0xee, 0xd6, 0x81, 0xd1, 0x16, 0x3b, 0x14, 0xd6, 0xd3,
  0x49, 0xdf, 0x54, 0x2f, 0x81, 0x38, 0xb0, 0x9e, 0x28, 0x81, 0xbc, 0xe3,
  0xf2, 0x44, 0xd5, 0xa9, 0xe7, 0xaa, 0xc1, 0xc2, 0x50, 0x81, 0xfd, 0x10,
  0x27, 0x3b, 0x34, 0x41, 0x1d, 0xcb, 0xfe, 0x7f, 0xe7, 0xc9, 0xc8, 0x0a,
  0x31, 0xf1, 0x7f, 0xf1, 0xdf, 0x10, 0x81, 0x19, 0x17, 0x19, 0x6b, 0x90,
  0x06, 0xdc, 0xdb, 0x04, 0x81, 0x15, 0x08, 0x31, 0x57, 0x3b, 0xed, 0x25,
  0xb9, 0x7f, 0x4a, 0xfa, 0xd2, 0xfb, 0x15, 0xea, 0x28, 0x81, 0xfa, 0x45,
  0x94, 0xcd, 0x09, 0x26, 0x0a, 0x48, 0x82, 0x81, 0x37, 0x52, 0x33, 0x00,
  0x81, 0x27, 0x77, 0xcf, 0x02, 0xc5, 0x0a, 0x48, 0xf6, 0xc0, 0x0b, 0x81,
  0xb3, 0x7f, 0x19, 0xf3, 0xc3, 0xca, 0xa8, 0xaf, 0x63, 0x7f, 0xab, 0x92,
  0x64, 0x60, 0xa5, 0xb2, 0xe8, 0x52, 0xee, 0x0e, 0x81, 0x03, 0xb5, 0x98,
  0x81, 0xfb, 0x09, 0x0d, 0x15, 0x13, 0x6e, 0x33, 0xdb, 0xfc, 0x37, 0x0e,
  0x9f, 0x8c, 0x81, 0x1a, 0xfb, 0xdd, 0xd0, 0xfc, 0x81, 0x04, 0x07, 0x38,
  0x3c, 0x06, 0xee, 0xf5, 0x7f, 0x46, 0xa8, 0x58, 0x7f, 0x0b, 0xce, 0x19,
  0xa3, 0x02, 0x0e, 0xf8, 0x19, 0xc1, 0x42, 0x66, 0xce, 0x81, 0x12, 0x72,
  0x12, 0x7f, 0x05, 0x36, 0x4d, 0xeb, 0x13, 0xf1, 0x87, 0x73, 0x3b, 0xef,
  0x7f, 0xb8, 0x02, 0x5a, 0xb2, 0xb3, 0xc8, 0xda, 0x4e, 0x81, 0x15, 0xf3,
  0xc2, 0xe2, 0x32, 0x28, 0x7f, 0x9c, 0xa5, 0x4e, 0x7f, 0x2c, 0x8b, 0x93,
  0xae, 0xa1, 0xb4, 0xbd, 0x17, 0x01, 0x2b, 0x3e, 0x81, 0x08, 0x27, 0x07,
  0x7f, 0x14, 0x39, 0x27, 0xd7, 0xc7, 0x60, 0x41, 0x7f, 0x27, 0xd4, 0x05,
  0x85, 0xba, 0x17, 0x35, 0x23, 0xf2, 0xeb, 0x14, 0xcf, 0x7f, 0x15, 0xb9,
  0x7f, 0x22, 0xf0, 0xdc, 0x22, 0x9a, 0x22, 0x7e, 0xdb, 0xd0, 0x4c, 0x9a,
  0xdf, 0xef, 0x4f, 0x81, 0x4a, 0xc0, 0x39, 0x2d, 0x71, 0xf3, 0x20, 0x81,
  0x3f, 0x7f, 0x0c, 0xe3, 0xe7, 0x18, 0x18, 0x50, 0x1a, 0x05, 0xac, 0x49,
  0xe8, 0xbd, 0xaa, 0x7f, 0xf2, 0xde, 0x00, 0xde, 0x18, 0x81, 0x17, 0x2d,
  0xd9, 0x34, 0x81, 0xb7, 0x5b, 0x7e, 0x46, 0x93, 0x1b, 0xd6, 0xd5, 0x11,
  0x4f, 0x7f, 0x1b, 0x32, 0x03, 0x2b, 0xe9, 0x1f, 0x81, 0xae, 0x31, 0xcb,
  0x81, 0xcc, 0xf3, 0xe1, 0x32, 0x37, 0x96, 0xbb, 0xc4, 0x3f, 0xc4, 0x15,
  0x25, 0xfd, 0xb9, 0x7f, 0xe7, 0x30, 0x7f, 0x00, 0xbb, 0xc2, 0xd1, 0x2c,
  0x81, 0x8b, 0xd4, 0xcf, 0x60, 0x6b, 0xe3, 0x5d, 0x62, 0xe3, 0xff, 0xff,
  0x04, 0x00, 0x00, 0x00, 0xc0, 0x00, 0x00, 0x00, 0xcf, 0xf8, 0xff, 0xff,
  0xfb, 0x18, 0x00, 0x00, 0x06, 0x0f, 0x00, 0x00, 0x02, 0xfc, 0xff, 0xff,
  0x3a, 0x00, 0x00, 0x00, 0x3d, 0x22, 0x00, 0x00, 0x5a, 0x0c, 0x00, 0x00,
  0x05, 0x07, 0x00, 0x00, 0xa0, 0x20, 0x00, 0x00, 0xca, 0x07, 0x00, 0x00,
  0x77, 0xf4, 0xff, 0xff, 0xd6, 0x06, 0x00, 0x00, 0x14, 0x0e, 0x00, 0x00,
  0x54, 0x06, 0x00, 0x00, 0x19, 0xff, 0xff, 0xff, 0x7a, 0x03, 0x00, 0x00,
  0x5a, 0xfa, 0xff, 0xff, 0x06, 0x22, 0x00, 0x00, 0x77, 0xf2, 0xff, 0xff,
  0xd5, 0xfc, 0xff, 0xff, 0x46, 0x03, 0x00, 0x00, 0x11, 0x06, 0x00, 0x00,
  0xa0, 0x01, 0x00, 0x00, 0xe3, 0xfd, 0xff, 0xff, 0x69, 0x00, 0x00, 0x00,
  0x75, 0x0b, 0x00, 0x00, 0x23, 0xf9, 0xff, 0xff, 0xb9, 0xfa, 0xff, 0xff,
  0xe7, 0xfc, 0xff, 0xff, 0x49, 0xf5, 0xff, 0xff, 0x18, 0x2e, 0x00, 0x00,
  0x23, 0x0c, 0x00, 0x00, 0x24, 0x02, 0x00, 0x00, 0x3d, 0x04, 0x00, 0x00,
  0x1b, 0x02, 0x00, 0x00, 0x40, 0x04, 0x00, 0x00, 0xdf, 0x04, 0x00, 0x00,
  0x93, 0x1f, 0x00, 0x00, 0xd5, 0x04, 0x00, 0x00, 0x17, 0x02, 0x00, 0x00,
  0x61, 0x1d, 0x00, 0x00, 0x1c, 0xf5, 0xff, 0xff, 0x8b, 0x03, 0x00, 0x00,
  0x38, 0x05, 0x00, 0x00, 0x99, 0xf9, 0xff, 0xff, 0xd1, 0xf8, 0xff, 0xff,
  0xb8, 0x41, 0x00, 0x00, 0xbc, 0x08, 0x00, 0x00, 0x2e, 0xe4, 0xff, 0xff,
  0x04, 0x00, 0x00, 0x00, 0xb0, 0x01, 0x00, 0x00, 0x2f, 0xbf, 0xde, 0x27,
  0x61, 0x2a, 0xbb, 0x95, 0x0a, 0x34, 0x6a, 0xb2, 0xc7, 0x42, 0x63, 0x34,
  0x3d, 0xad, 0x35, 0x56, 0x9f, 0xa4, 0x2d, 0x59, 0xc1, 0xea, 0x56, 0x4a,
  0x61, 0x68, 0xcb, 0x41, 0x35, 0xb7, 0x9d, 0xb6, 0x44, 0xc4, 0x55, 0x10,
  0xa8, 0x45, 0x26, 0xa2, 0x48, 0x74, 0x46, 0xc7, 0x54, 0xac, 0xc0, 0x46,
  0x7b, 0x34, 0xb0, 0x8a, 0x17, 0x43, 0x6d, 0x93, 0xac, 0x56, 0x66, 0x4d,
  0x3e, 0x99, 0x31, 0x6a, 0xa2, 0x81, 0x43, 0x67, 0xb6, 0xc1, 0x74, 0x63,
  0x72, 0x7f, 0xbb, 0x53, 0x47, 0x9c, 0x81, 0xaa, 0x54, 0xb2, 0x55, 0x27,
  0x90, 0x4d, 0x28, 0x9a, 0x65, 0x7f, 0x4e, 0xb1, 0x27, 0xd7, 0xce, 0x1b,
  0x2d, 0xff, 0xef, 0xba, 0x11, 0x0f, 0x13, 0xd5, 0xb5, 0x26, 0x23, 0x1f,
  0x0b, 0xe9, 0x17, 0x15, 0xeb, 0xa8, 0x1c, 0x1e, 0xdd, 0xef, 0x2e, 0x28,
  0x26, 0x3a, 0xee, 0x13, 0x26, 0xc2, 0xc1, 0xd7, 0x1e, 0xe5, 0x0e, 0x1a,
  0xda, 0x20, 0x04, 0xe9, 0x2c, 0x24, 0x12, 0xcf, 0x2d, 0xa5, 0xba, 0x4c,
  0x6c, 0x54, 0x8b, 0x96, 0x57, 0x64, 0x74, 0xaa, 0xaa, 0x63, 0x7f, 0x4d,
  0x71, 0xa2, 0x28, 0x73, 0x96, 0x93, 0x4f, 0x76, 0x8b, 0xb8, 0x6c, 0x62,
  0x58, 0x68, 0xa8, 0x66, 0x5f, 0x81, 0xa0, 0x81, 0x5b, 0xa0, 0x76, 0x4f,
  0x9b, 0x67, 0x6b, 0x89, 0x59, 0x6b, 0x31, 0xaa, 0x2f, 0x81, 0x81, 0x7f,
  0x7f, 0x7f, 0x81, 0x81, 0x7f, 0x7f, 0x7f, 0x81, 0x81, 0x7f, 0x78, 0x7f,
  0x7f, 0x81, 0x34, 0x7f, 0x81, 0x92, 0x7f, 0x7f, 0x81, 0x81, 0x7f, 0x7f,
  0x7f, 0x6a, 0x81, 0x7f, 0x7f, 0x88, 0x9e, 0x83, 0x7f, 0x81, 0x7f, 0x7f,
  0x81, 0x7f, 0x7f, 0x81, 0x7f, 0x75, 0x36, 0x81, 0xf8, 0xb5, 0xa9, 0x43,
  0x2c, 0x1e, 0xcb, 0xc7, 0x37, 0x28, 0x1f, 0xc3, 0xa7, 0x2c, 0x37, 0x42,
  0x23, 0xe5, 0x18, 0x1e, 0xdf, 0xab, 0x3b, 0x3c, 0xac, 0xea, 0x13, 0x40,
  0x38, 0x0f, 0xda, 0x21, 0x3e, 0x96, 0xc1, 0xd0, 0x31, 0xdc, 0x1c, 0x31,
  0xe4, 0x38, 0x21, 0xdb, 0x30, 0xfa, 0x11, 0xb9, 0xd6, 0xc7, 0xd2, 0x2b,
  0x1d, 0x26, 0xcf, 0xf2, 0x9b, 0x38, 0x29, 0xbe, 0xb8, 0x1e, 0x44, 0x3b,
  0x41, 0xe8, 0xad, 0x36, 0xe0, 0xbb, 0x2f, 0x39, 0xbb, 0xcb, 0x3a, 0x38,
  0x19, 0xff, 0xcf, 0x2a, 0x3a, 0xc0, 0xe6, 0xc4, 0x1a, 0xd5, 0x37, 0x48,
  0xe3, 0x32, 0x50, 0xc6, 0x21, 0x04, 0x98, 0xe8, 0x81, 0xac, 0xaf, 0x47,
  0x2d, 0x41, 0xbd, 0xf4, 0xb3, 0x43, 0x3d, 0xb8, 0x90, 0x29, 0x30, 0x53,
  0x4e, 0xe3, 0x81, 0x3c, 0xcd, 0xa1, 0x49, 0x31, 0xa5, 0xd7, 0x34, 0x3e,
  0x1f, 0x01, 0xbd, 0x30, 0x4e, 0x8f, 0xe5, 0xbe, 0x27, 0xcb, 0x34, 0x62,
  0xe8, 0x34, 0x69, 0xc0, 0x34, 0xe8, 0x81, 0xbe, 0xbb, 0xe3, 0xc4, 0x2a,
  0x0d, 0x11, 0x02, 0x00, 0xa3, 0x20, 0x1c, 0xe1, 0xc1, 0x10, 0x1f, 0x31,
  0x17, 0xfa, 0xbc, 0x18, 0xe8, 0xe5, 0x1a, 0x19, 0xd3, 0x03, 0x0c, 0x23,
  0x05, 0xf5, 0xeb, 0x10, 0x24, 0xd8, 0xf9, 0xf0, 0x0a, 0xf6, 0x02, 0x24,
  0xfb, 0x06, 0x23, 0xf9, 0x0f, 0xe6, 0xcc, 0xe2, 0xea, 0xe5, 0xff, 0xff,
  0x04, 0x00, 0x00, 0x00, 0xc0, 0x00, 0x00, 0x00, 0x5a, 0xff, 0xff, 0xff,
  0x27, 0x70, 0x00, 0x00, 0x4f, 0x68, 0x00, 0x00, 0x51, 0xff, 0xff, 0xff,
  0xa8, 0x02, 0x00, 0x00, 0x83, 0xd1, 0xff, 0xff, 0x25, 0x4f, 0x00, 0x00,
  0xc3, 0x4c, 0x00, 0x00, 0x9e, 0xdb, 0xff, 0xff, 0x8c, 0xfd, 0xff, 0xff,
  0x5f, 0xfc, 0xff, 0xff, 0xd9, 0x40, 0x00, 0x00, 0xd4, 0x56, 0x00, 0x00,
  0xe7, 0xc6, 0xff, 0xff, 0x83, 0xd5, 0xff, 0xff, 0xf0, 0xf7, 0xff, 0xff,
  0x86, 0x01, 0x00, 0x00, 0xe6, 0x6c, 0x00, 0x00, 0xb1, 0xfe, 0xff, 0xff,
  0x5f, 0xfb, 0xff, 0xff, 0x0a, 0xd0, 0x00, 0x00, 0xa8, 0x2e, 0x00, 0x00,
  0xb3, 0xe0, 0xff, 0xff, 0x80, 0xe9, 0xff, 0xff, 0xd6, 0x3e, 0x00, 0x00,
  0xed, 0x2f, 0x00, 0x00, 0x7c, 0xf6, 0xff, 0xff, 0x5c, 0xf7, 0xff, 0xff,
  0x2a, 0xee, 0xff, 0xff, 0x56, 0xff, 0xff, 0xff, 0xf7, 0x71, 0x00, 0x00,
  0x66, 0x03, 0x00, 0x00, 0x92, 0xf2, 0xff, 0xff, 0x39, 0x28, 0x00, 0x00,
  0xd4, 0x30, 0x00, 0x00, 0x96, 0x3e, 0x00, 0x00, 0xcc, 0xfb, 0xff, 0xff,
  0xfd, 0x9a, 0x00, 0x00, 0xfb, 0xe6, 0xff, 0xff, 0x29, 0xfe, 0xff, 0xff,
  0x3b, 0x69, 0x00, 0x00, 0x2f, 0x01, 0x00, 0x00, 0x1c, 0xfb, 0xff, 0xff,
  0xb7, 0x32, 0x00, 0x00, 0x37, 0x01, 0x00, 0x00, 0x57, 0xfd, 0xff, 0xff,
  0xfb, 0xe3, 0xff, 0xff, 0xfe, 0x2d, 0x00, 0x00, 0xb6, 0xe6, 0xff, 0xff,
  0x04, 0x00, 0x00, 0x00, 0x80, 0x01, 0x00, 0x00, 0xf1, 0xe5, 0x2e, 0xce,
  0x36, 0x58, 0x45, 0x60, 0x6f, 0xd0, 0xea, 0x3a, 0xe4, 0xec, 0x0d, 0xef,
  0x2e, 0x2d, 0x0a, 0xcb, 0xe0, 0x13, 0xaa, 0xd9, 0x1e, 0xf3, 0x15, 0xb7,
  0xdc, 0x1c, 0x2d, 0x1a, 0x1c, 0x2f, 0x3f, 0x0e, 0x7b, 0xcc, 0xb3, 0x08,
  0xc6, 0xb9, 0xde, 0xfe, 0xb9, 0xab, 0x81, 0x39, 0xf5, 0x02, 0xd7, 0x30,
  0xfe, 0x0e, 0xdc, 0xf3, 0xc9, 0x1a, 0x0f, 0x51, 0xe4, 0x04, 0xe4, 0x7f,
  0x26, 0x38, 0x08, 0xdf, 0xd3, 0xe8, 0xc0, 0x13, 0x0d, 0xf5, 0xed, 0xaf,
  0x2c, 0xf6, 0xcb, 0xc2, 0x3e, 0xdf, 0xde, 0xca, 0x22, 0x24, 0x35, 0xd6,
  0x05, 0x41, 0x2e, 0xda, 0x01, 0xdf, 0xcb, 0xe8, 0x05, 0xb7, 0xe8, 0xf8,
  0xe0, 0x10, 0x03, 0x0c, 0x6c, 0x11, 0xf9, 0xf1, 0xe1, 0xb3, 0x22, 0x07,
  0x02, 0xc4, 0xe8, 0xf9, 0x9d, 0x35, 0x06, 0x1d, 0x06, 0x2e, 0xde, 0xe4,
  0xec, 0xda, 0x28, 0xd1, 0x9d, 0x1c, 0xce, 0x35, 0xbb, 0x3c, 0xeb, 0xeb,
  0x7f, 0xee, 0xfd, 0x27, 0x1a, 0x29, 0xc5, 0xde, 0xe0, 0x8e, 0x61, 0x37,
  0x19, 0x92, 0xf1, 0xf2, 0x81, 0x7b, 0x3a, 0xcf, 0x36, 0x0a, 0xeb, 0x11,
  0x36, 0x1f, 0xe6, 0x2b, 0x4d, 0x58, 0x1c, 0xc5, 0x10, 0x59, 0x42, 0x22,
  0xe3, 0xbc, 0x0b, 0x0a, 0xe4, 0x09, 0x37, 0x0a, 0xeb, 0xab, 0xdc, 0x27,
  0xe7, 0xf8, 0x18, 0xbf, 0xad, 0x13, 0xfc, 0x18, 0xf7, 0x3b, 0xee, 0x4c,
  0x24, 0x03, 0x06, 0xfa, 0xcd, 0x4c, 0x2d, 0x4a, 0x05, 0x17, 0x3f, 0x0b,
  0x06, 0x9b, 0xfa, 0xf3, 0x5d, 0xf5, 0x9d, 0x3f, 0x49, 0xeb, 0x20, 0x1a,
  0x33, 0x1e, 0xf2, 0xc8, 0xc9, 0x7f, 0x06, 0x0e, 0x39, 0xe8, 0x13, 0x1b,
  0xe7, 0x2b, 0x02, 0xea, 0x02, 0xd1, 0xe3, 0x15, 0xe9, 0x04, 0xf5, 0xbb,
  0x84, 0x21, 0x73, 0x1d, 0x10, 0x3a, 0xe8, 0xe4, 0x99, 0xfb, 0x40, 0xdf,
  0xa8, 0x26, 0xca, 0xaf, 0x01, 0x6d, 0xfa, 0x28, 0x6e, 0x20, 0xfb, 0x0f,
  0xe9, 0xf2, 0x7f, 0xc7, 0xf1, 0x6c, 0x4c, 0x5d, 0xe8, 0x35, 0x5b, 0x26,
  0xeb, 0xdc, 0xe9, 0x29, 0xc4, 0x31, 0x1c, 0x34, 0x00, 0xea, 0xf4, 0x19,
  0xc9, 0xcd, 0x10, 0x05, 0x14, 0xf5, 0x27, 0x04, 0xcb, 0xe7, 0x1f, 0x39,
  0x04, 0xc7, 0x05, 0xc3, 0x42, 0xe6, 0x01, 0xe3, 0x06, 0xfc, 0x06, 0x27,
  0x26, 0x00, 0x0d, 0x7f, 0x2d, 0xef, 0xf1, 0x17, 0x05, 0xf8, 0x14, 0x0b,
  0xff, 0x22, 0xe7, 0xd0, 0xfd, 0xe6, 0xe8, 0x22, 0xe7, 0xef, 0xd6, 0xfd,
  0x06, 0xe8, 0x04, 0x0d, 0x28, 0x06, 0x15, 0xfd, 0xf7, 0x0b, 0x02, 0x01,
  0x20, 0xfb, 0x01, 0xfc, 0xc2, 0x09, 0x0b, 0xe7, 0xfe, 0xf9, 0xca, 0xf2,
  0xf0, 0xee, 0x14, 0x20, 0x14, 0xf5, 0x1b, 0x0b, 0xed, 0x7f, 0xf3, 0xd7,
  0xd8, 0xfd, 0xd3, 0xde, 0x17, 0x3f, 0xba, 0xf3, 0x42, 0xe8, 0xff, 0xff,
  0x04, 0x00, 0x00, 0x00, 0x20, 0x00, 0x00, 0x00, 0x47, 0x0b, 0x00, 0x00,
  0xdf, 0xf8, 0xff, 0xff, 0x89, 0x36, 0x00, 0x00, 0x6c, 0xe2, 0xff, 0xff,
  0x67, 0xcd, 0xff, 0xff, 0x05, 0xc8, 0xff, 0xff, 0x71, 0xe3, 0xff, 0xff,
  0x02, 0xf9, 0xff, 0xff, 0x6e, 0xe8, 0xff, 0xff, 0x04, 0x00, 0x00, 0x00,
  0x80, 0x01, 0x00, 0x00, 0xae, 0x81, 0xe3, 0x1c, 0xe2, 0xf9, 0x2e, 0xcf,
  0xf9, 0x7f, 0x27, 0xaf, 0x01, 0xa8, 0xbf, 0x60, 0x81, 0xc3, 0x2b, 0x0d,
  0x47, 0x09, 0x1e, 0xec, 0x02, 0xdb, 0x81, 0xc0, 0x21, 0xd0, 0xdb, 0x3b,
  0xc5, 0x8a, 0x60, 0xe4, 0x7f, 0xc5, 0x34, 0x07, 0xe7, 0x42, 0x3e, 0xa5,
  0x70, 0x2a, 0xc1, 0x7f, 0x81, 0x5a, 0x39, 0x43, 0xd4, 0x07, 0x23, 0x87,
  0x28, 0xee, 0x39, 0x1d, 0x2e, 0x81, 0xfb, 0x69, 0xff, 0x44, 0xf0, 0xdc,
  0x0e, 0x64, 0x7f, 0xc1, 0x53, 0x7f, 0x02, 0xaf, 0xaf, 0xb1, 0xc2, 0x75,
  0x24, 0xf9, 0x20, 0x04, 0xe6, 0x20, 0x81, 0xb1, 0xb5, 0x0d, 0x8d, 0xb2,
  0x7f, 0x0f, 0x24, 0x3c, 0x54, 0x21, 0xe1, 0xf6, 0x7f, 0x5e, 0x09, 0x03,
  0x81, 0x88, 0xf4, 0x3f, 0x91, 0x2c, 0x4e, 0x0d, 0xf0, 0x5e, 0xb2, 0x71,
  0xd1, 0x7f, 0xe9, 0x1d, 0xf0, 0xb1, 0xe3, 0xa4, 0x7f, 0x48, 0xe5, 0x3b,
  0x42, 0xac, 0x00, 0x2f, 0x26, 0xee, 0x20, 0x81, 0xb1, 0xb3, 0x81, 0x62,
  0x03, 0x61, 0x4e, 0x9d, 0x52, 0xf8, 0x7f, 0x0f, 0xd8, 0x8b, 0xb5, 0xde,
  0xe9, 0x7f, 0x1d, 0x1f, 0x5b, 0x85, 0xc0, 0xe4, 0xb6, 0xee, 0x81, 0xdc,
  0x27, 0xfa, 0xf9, 0xf9, 0x89, 0xf3, 0x29, 0x45, 0xa1, 0x8c, 0x7f, 0xd2,
  0x38, 0xfe, 0x81, 0xbe, 0xdd, 0xf8, 0xfb, 0x32, 0xe2, 0x22, 0x7f, 0xe4,
  0xa1, 0x2c, 0xfa, 0x98, 0xa1, 0x5c, 0x54, 0x66, 0x7f, 0x64, 0xf8, 0xe3,
  0xc9, 0x81, 0xbf, 0x20, 0xc3, 0x2b, 0x2c, 0x01, 0x6c, 0x7f, 0x86, 0xc4,
  0x8f, 0xee, 0xc4, 0x1e, 0x3b, 0x3a, 0xc3, 0x14, 0x81, 0x18, 0xe4, 0xf5,
  0xdf, 0x3d, 0x11, 0xaf, 0x52, 0x57, 0x81, 0x96, 0x27, 0xfa, 0x00, 0xb5,
  0x81, 0x0a, 0x0b, 0xd0, 0xa2, 0xfe, 0x2d, 0x7f, 0x32, 0x19, 0xd6, 0xea,
  0x07, 0x81, 0x03, 0xab, 0x84, 0x41, 0xb9, 0x88, 0x81, 0xfe, 0x1a, 0xf6,
  0x06, 0xdc, 0x02, 0x18, 0x31, 0xb4, 0x81, 0x88, 0xf7, 0x07, 0xd0, 0x12,
  0x37, 0x5d, 0x7f, 0x00, 0x89, 0xc6, 0x42, 0xb9, 0x66, 0x19, 0x0e, 0x10,
  0x91, 0xd0, 0x81, 0xce, 0x7f, 0x0b, 0x50, 0xd6, 0x08, 0xf4, 0x45, 0x54,
  0x7f, 0x72, 0xf3, 0xf4, 0x53, 0x54, 0x83, 0x27, 0xd5, 0x61, 0x6e, 0x7f,
  0xe2, 0x44, 0x21, 0xae, 0x23, 0x39, 0x7f, 0xdd, 0x58, 0xca, 0xde, 0x0d,
  0x4b, 0x26, 0x20, 0x06, 0xbb, 0x81, 0x14, 0xc7, 0x20, 0xcf, 0x0e, 0x7f,
  0xe8, 0x46, 0x06, 0x4c, 0xf2, 0x9b, 0x3d, 0xda, 0x7f, 0xe6, 0x54, 0x13,
  0xf4, 0xdb, 0xa2, 0xd5, 0x71, 0x31, 0xb7, 0x7f, 0x5f, 0xed, 0x7f, 0xfb,
  0x04, 0x23, 0xcc, 0x0c, 0xe4, 0x1c, 0x1d, 0xea, 0xa0, 0x81, 0xf4, 0x64,
  0xc2, 0x4c, 0x52, 0x21, 0xff, 0xea, 0x25, 0x81, 0x20, 0xf1, 0x16, 0x7f,
  0xf2, 0x9c, 0x4f, 0x44, 0xfa, 0xe9, 0xff, 0xff, 0x04, 0x00, 0x00, 0x00,
  0xc0, 0x00, 0x00, 0x00, 0xfd, 0x01, 0x00, 0x00, 0x6e, 0x13, 0x00, 0x00,
  0xc3, 0xe9, 0xff, 0xff, 0x06, 0x10, 0x00, 0x00, 0xb9, 0x07, 0x00, 0x00,
  0x5a, 0x0e, 0x00, 0x00, 0x2c, 0x09, 0x00, 0x00, 0xbc, 0x22, 0x00, 0x00,
  0x6e, 0x1d, 0x00, 0x00, 0x50, 0x18, 0x00, 0x00, 0x94, 0xf8, 0xff, 0xff,
  0x08, 0xff, 0xff, 0xff, 0xe4, 0x03, 0x00, 0x00, 0xb9, 0x0b, 0x00, 0x00,
  0x9c, 0x08, 0x00, 0x00, 0x3f, 0xfd, 0xff, 0xff, 0x17, 0x00, 0x00, 0x00,
  0x70, 0x10, 0x00, 0x00, 0x81, 0x21, 0x00, 0x00, 0x13, 0x01, 0x00, 0x00,
  0x90, 0x08, 0x00, 0x00, 0x63, 0x1f, 0x00, 0x00, 0x02, 0x0a, 0x00, 0x00,
  0xdf, 0x14, 0x00, 0x00, 0x2c, 0x31, 0x00, 0x00, 0x97, 0x13, 0x00, 0x00,
  0x16, 0x05, 0x00, 0x00, 0x87, 0x18, 0x00, 0x00, 0x95, 0x06, 0x00, 0x00,
  0xbd, 0x11, 0x00, 0x00, 0x2c, 0xf7, 0xff, 0xff, 0x0f, 0x17, 0x00, 0x00,
  0xc4, 0x03, 0x00, 0x00, 0x6b, 0x1a, 0x00, 0x00, 0x05, 0x19, 0x00, 0x00,
  0x63, 0x0f, 0x00, 0x00, 0xea, 0xc6, 0x00, 0x00, 0xb8, 0x26, 0x00, 0x00,
  0xa3, 0x14, 0x00, 0x00, 0x73, 0x21, 0x00, 0x00, 0x20, 0x07, 0x00, 0x00,
  0x36, 0x02, 0x00, 0x00, 0x0d, 0x0b, 0x00, 0x00, 0x5a, 0x04, 0x00, 0x00,
  0x28, 0x0b, 0x00, 0x00, 0xbc, 0x06, 0x00, 0x00, 0x0f, 0x07, 0x00, 0x00,
  0x21, 0x09, 0x00, 0x00, 0xc6, 0xea, 0xff, 0xff, 0x04, 0x00, 0x00, 0x00,
  0xb0, 0x01, 0x00, 0x00, 0xc9, 0x07, 0x28, 0x08, 0x7f, 0xd1, 0x11, 0x08,
  0x12, 0x20, 0x3e, 0xe9, 0x0c, 0x19, 0xb7, 0x12, 0x59, 0xe0, 0xea, 0x50,
  0xde, 0x0c, 0xd8, 0xfa, 0xe9, 0x03, 0x25, 0xda, 0xe9, 0x7f, 0x1e, 0xb6,
  0xd5, 0x68, 0x79, 0xc0, 0x0a, 0xc4, 0x81, 0xe3, 0x10, 0xf1, 0xf9, 0xbd,
  0xfc, 0xce, 0x81, 0x14, 0xb2, 0x5a, 0xf5, 0x21, 0xf4, 0xa3, 0x7a, 0xed,
  0x55, 0x10, 0x4d, 0x7f, 0x44, 0x7f, 0xe9, 0x22, 0x64, 0xae, 0x06, 0x6c,
  0xd7, 0xea, 0x6a, 0x9d, 0xfd, 0x30, 0xa2, 0x1b, 0xe9, 0x9f, 0x7f, 0x81,
  0x81, 0xa7, 0x0a, 0xe7, 0xc5, 0xd5, 0x86, 0x14, 0xcf, 0xe9, 0x17, 0x81,
  0x15, 0x98, 0x16, 0x2f, 0xf0, 0xfc, 0x0c, 0x00, 0x32, 0xd8, 0x14, 0xfd,
  0x1f, 0x19, 0xfb, 0xc6, 0xfe, 0x06, 0xb8, 0x20, 0x3f, 0xd8, 0xee, 0x43,
  0xe6, 0xfe, 0xcb, 0x02, 0x13, 0x05, 0x21, 0x9e, 0xe0, 0x2f, 0xd4, 0xbe,
  0x03, 0xfc, 0x6c, 0xd7, 0x0e, 0xd4, 0xa2, 0x06, 0x15, 0xfc, 0x06, 0xcf,
  0xf0, 0xb4, 0x83, 0xe7, 0x81, 0x7b, 0xee, 0xc0, 0x09, 0xa7, 0x08, 0xf6,
  0x26, 0x14, 0x44, 0x31, 0x44, 0x59, 0xc3, 0x2b, 0x7f, 0x81, 0x0a, 0x6a,
  0xe1, 0xc7, 0xa7, 0xe2, 0x81, 0xfd, 0xe6, 0x11, 0xfa, 0xfd, 0x4b, 0xbf,
  0xc9, 0x7f, 0x8e, 0xc3, 0x24, 0xb8, 0x29, 0x3c, 0xa4, 0x21, 0xb9, 0x3c,
  0xf2, 0x81, 0x0e, 0xd1, 0xfe, 0x72, 0x7f, 0x7f, 0xda, 0x5f, 0x81, 0x7f,
  0x7f, 0x81, 0xb7, 0x4a, 0x7f, 0x53, 0x7f, 0xa5, 0xc8, 0x93, 0x7f, 0x09,
  0x81, 0x7f, 0x7f, 0x07, 0x59, 0x72, 0x4b, 0x7f, 0x7f, 0xab, 0x7f, 0x01,
  0xcd, 0x96, 0xdf, 0x81, 0x7f, 0x7f, 0x5b, 0x3b, 0xd3, 0x7f, 0xec, 0x4f,
  0x7f, 0x1d, 0xef, 0x81, 0xb5, 0x46, 0xd6, 0xcf, 0xc7, 0x88, 0x0c, 0xe7,
  0x03, 0x07, 0x67, 0x2e, 0x1d, 0x49, 0xcd, 0x7f, 0x6b, 0x86, 0xf4, 0x7f,
  0x1e, 0xaa, 0xa5, 0xe4, 0x15, 0xf6, 0xeb, 0x16, 0xff, 0x0d, 0x54, 0xc8,
  0xfa, 0xdd, 0x81, 0xd0, 0x17, 0xac, 0x2f, 0x81, 0xbd, 0x1e, 0x7f, 0x48,
  0xe3, 0x9a, 0xfb, 0x6b, 0xf3, 0x01, 0x07, 0xfa, 0x1e, 0xe5, 0x19, 0x02,
  0x24, 0x1d, 0x7f, 0x1f, 0x0f, 0x05, 0xe0, 0x5d, 0x4f, 0xd5, 0xcb, 0xf7,
  0xf0, 0x04, 0xd4, 0x2b, 0xec, 0xf7, 0xe6, 0xed, 0x09, 0x3c, 0xf4, 0x05,
  0xef, 0x2b, 0xb5, 0x22, 0xdc, 0xd0, 0x33, 0xdb, 0x52, 0xf7, 0xff, 0xfe,
  0xea, 0xf5, 0x03, 0xdc, 0xb5, 0x7f, 0x0a, 0x15, 0xae, 0x81, 0x51, 0xb6,
  0x3b, 0x17, 0x2e, 0xc5, 0xde, 0x1c, 0xcc, 0x6c, 0x51, 0x0e, 0xf9, 0x7d,
  0xcf, 0x0e, 0x54, 0x7f, 0x08, 0x81, 0x7f, 0x0a, 0x14, 0xcc, 0xc5, 0xa1,
  0xff, 0xd1, 0xb7, 0xad, 0xc1, 0xbc, 0x1d, 0x25, 0x7f, 0x37, 0xe1, 0x24,
  0xe6, 0xa7, 0x90, 0xf5, 0x23, 0xfb, 0x15, 0xfe, 0xf6, 0xe3, 0x14, 0x0a,
  0x22, 0x19, 0x41, 0x0c, 0x23, 0x03, 0xda, 0x43, 0x32, 0xdb, 0xc3, 0x04,
  0xf0, 0xf9, 0xd4, 0x29, 0x08, 0xf5, 0xe9, 0xc9, 0x05, 0xf8, 0xe9, 0x0c,
  0xfa, 0x07, 0xeb, 0x32, 0xe3, 0xdd, 0x36, 0x01, 0x32, 0xfc, 0x27, 0xfa,
  0xe9, 0xc7, 0x1a, 0x19, 0x82, 0xec, 0xff, 0xff, 0x04, 0x00, 0x00, 0x00,
  0xc0, 0x00, 0x00, 0x00, 0xe7, 0x2e, 0x00, 0x00, 0xef, 0xbf, 0xff, 0xff,
  0x1b, 0xfd, 0xff, 0xff, 0xa4, 0x04, 0x00, 0x00, 0xde, 0xfd, 0xff, 0xff,
  0x1e, 0x2c, 0x00, 0x00, 0x7a, 0x09, 0x00, 0x00, 0x28, 0xfc, 0xff, 0xff,
  0x85, 0xdf, 0xff, 0xff, 0xea, 0x04, 0x00, 0x00, 0x90, 0xf4, 0xff, 0xff,
  0xa9, 0xfa, 0xff, 0xff, 0x20, 0xe3, 0xff, 0xff, 0x08, 0xd5, 0xff, 0xff,
  0xde, 0x15, 0x00, 0x00, 0xf0, 0x02, 0x00, 0x00, 0x64, 0xe0, 0xff, 0xff,
  0x96, 0x70, 0x00, 0x00, 0xd8, 0xfb, 0xff, 0xff, 0x54, 0xd3, 0xff, 0xff,
  0x3c, 0x2d, 0x00, 0x00, 0x6d, 0xfe, 0xff, 0xff, 0x61, 0xfc, 0xff, 0xff,
  0xa1, 0xf8, 0xff, 0xff, 0xe4, 0x04, 0x00, 0x00, 0xe8, 0xfb, 0xff, 0xff,
  0xa8, 0xef, 0xff, 0xff, 0x8a, 0xfa, 0xff, 0xff, 0x6a, 0xfb, 0xff, 0xff,
  0x0b, 0x07, 0x00, 0x00, 0x90, 0x00, 0x00, 0x00, 0x01, 0x47, 0x00, 0x00,
  0x93, 0x2c, 0x00, 0x00, 0x10, 0xfe, 0xff, 0xff, 0xdc, 0x13, 0x00, 0x00,
  0xe5, 0x32, 0x00, 0x00, 0xde, 0xf9, 0xff, 0xff, 0x31, 0x42, 0x00, 0x00,
  0xe0, 0x04, 0x00, 0x00, 0xce, 0x00, 0x00, 0x00, 0x7e, 0xf4, 0xff, 0xff,
  0x85, 0xe6, 0xff, 0xff, 0xdf, 0xf6, 0xff, 0xff, 0xbb, 0x07, 0x00, 0x00,
  0x5b, 0x0a, 0x00, 0x00, 0x66, 0x5c, 0x00, 0x00, 0xc3, 0x30, 0x00, 0x00,
  0xf7, 0xf2, 0xff, 0xff, 0x4e, 0xed, 0xff, 0xff, 0x04, 0x00, 0x00, 0x00,
  0x80, 0x01, 0x00, 0x00, 0x2d, 0x33, 0xb2, 0x34, 0x0b, 0x19, 0xa6, 0xe1,
  0x07, 0xec, 0xff, 0xdb, 0xee, 0x01, 0x29, 0x01, 0x2d, 0xf0, 0x2c, 0xe7,
  0x12, 0xda, 0x2c, 0x00, 0x0d, 0xe7, 0xec, 0x0e, 0xf1, 0x01, 0xec, 0x03,
  0x31, 0x13, 0x14, 0x0d, 0x7f, 0x3e, 0x1d, 0xe4, 0x03, 0xec, 0xf9, 0xeb,
  0x4d, 0x1b, 0x13, 0xd2, 0x42, 0x1c, 0x0c, 0xf6, 0x20, 0x5c, 0xf6, 0xe4,
  0x25, 0x40, 0xd9, 0xb9, 0x6e, 0xf3, 0x0c, 0x2d, 0x18, 0x26, 0x17, 0xa3,
  0x7f, 0xe3, 0x2b, 0x34, 0x2e, 0x17, 0x2c, 0x10, 0x1b, 0xc4, 0x36, 0x4e,
  0x40, 0x64, 0x08, 0x6f, 0x3f, 0x1f, 0x13, 0x16, 0x57, 0x14, 0x22, 0x1d,
  0x19, 0x2a, 0x68, 0xbe, 0xf1, 0x0f, 0x4e, 0x7f, 0xcc, 0x19, 0x02, 0x39,
  0x29, 0x49, 0x1c, 0xab, 0xdc, 0x79, 0x1b, 0x29, 0xab, 0x9e, 0x52, 0x02,
  0x06, 0x3f, 0xc9, 0xaa, 0xe8, 0xd5, 0x1d, 0xfb, 0x91, 0x15, 0x05, 0xfb,
  0xdd, 0xe0, 0xa4, 0xce, 0x0f, 0x19, 0xa0, 0xea, 0xe7, 0xc3, 0xd9, 0x16,
  0x49, 0xb1, 0xde, 0x1a, 0xe3, 0x31, 0xb2, 0xf3, 0x13, 0xaa, 0x08, 0x46,
  0x71, 0xac, 0xd8, 0x10, 0xf9, 0xe7, 0x08, 0x44, 0x15, 0x07, 0xf0, 0xe3,
  0xfa, 0x13, 0xae, 0x28, 0xe9, 0xdf, 0x25, 0xf2, 0x47, 0xdb, 0x29, 0xc5,
  0x24, 0xea, 0xe4, 0xd0, 0x81, 0xfa, 0xac, 0x13, 0xe5, 0xc1, 0x29, 0x00,
  0xcb, 0x15, 0xf3, 0xd8, 0x35, 0xe7, 0x1e, 0xec, 0xc2, 0x3f, 0x1b, 0x45,
  0x81, 0xcd, 0x39, 0x28, 0x4c, 0xc5, 0xc0, 0xc6, 0x54, 0x3d, 0x42, 0xe9,
  0x0c, 0xaa, 0xec, 0x2d, 0xe1, 0x09, 0xcd, 0x8d, 0xce, 0xc3, 0x5e, 0x22,
  0x4b, 0x09, 0x72, 0x58, 0x44, 0x3d, 0x37, 0x26, 0x08, 0x21, 0xd2, 0xe5,
  0x58, 0x49, 0x58, 0xcb, 0x1e, 0x4d, 0x0d, 0x60, 0x1a, 0x1e, 0xd2, 0xa1,
  0x9a, 0x19, 0xf2, 0x01, 0x14, 0x3a, 0x22, 0xb7, 0x4e, 0x6a, 0xea, 0x24,
  0xed, 0xc1, 0xea, 0xbf, 0x99, 0xb2, 0xd6, 0x37, 0xfb, 0x28, 0xe2, 0x29,
  0xfb, 0xb2, 0x3d, 0x03, 0xdb, 0x7f, 0xde, 0x94, 0xf4, 0xd8, 0xf5, 0xd8,
  0xfa, 0xee, 0xd4, 0x61, 0x72, 0x39, 0x03, 0x7f, 0xab, 0x1d, 0x11, 0x3b,
  0x19, 0xab, 0x45, 0x5a, 0x4d, 0xdb, 0xe1, 0xc8, 0x3f, 0x1f, 0xb3, 0x19,
  0x49, 0xe0, 0xe7, 0xfb, 0x04, 0x3c, 0xda, 0xce, 0x11, 0xdd, 0x3c, 0x38,
  0x19, 0xd0, 0xf7, 0x56, 0x5e, 0xb3, 0xff, 0x05, 0xaf, 0x4d, 0x97, 0x39,
  0x3b, 0x63, 0x65, 0xd0, 0x13, 0x13, 0x7f, 0x2c, 0xde, 0x3f, 0xab, 0x09,
  0xdd, 0x5e, 0xf7, 0xf5, 0x29, 0x3e, 0x0c, 0xf8, 0xce, 0xf9, 0xc2, 0x01,
  0xf6, 0x1d, 0x04, 0xd9, 0xf7, 0x2d, 0x31, 0xf0, 0x01, 0x05, 0x0f, 0xf7,
  0xab, 0xec, 0x3c, 0x1c, 0x5c, 0x03, 0x21, 0xf2, 0xeb, 0xe0, 0xe2, 0xcc,
  0xfe, 0xe1, 0x07, 0x1c, 0xda, 0xee, 0xff, 0xff, 0x04, 0x00, 0x00, 0x00,
  0x20, 0x00, 0x00, 0x00, 0x9b, 0xd0, 0xff, 0xff, 0x56, 0x7d, 0xff, 0xff,
  0xbe, 0x02, 0x00, 0x00, 0xa1, 0x19, 0x00, 0x00, 0x55, 0xc1, 0xff, 0xff,
  0xc4, 0x02, 0x00, 0x00, 0x86, 0x9f, 0xff, 0xff, 0x03, 0xfe, 0xff, 0xff,
  0x06, 0xef, 0xff, 0xff, 0x04, 0x00, 0x00, 0x00, 0x80, 0x01, 0x00, 0x00,
  0x81, 0x2f, 0xe7, 0xef, 0x46, 0x28, 0x0c, 0xd1, 0xf9, 0xcc, 0xe1, 0xf0,
  0xcd, 0x81, 0x0b, 0x13, 0xb2, 0x4d, 0x09, 0xcc, 0xcf, 0x31, 0xbc, 0x7f,
  0x3b, 0x2f, 0x33, 0xeb, 0xc7, 0x81, 0x33, 0xee, 0x11, 0x47, 0x87, 0x25,
  0x81, 0x65, 0x2f, 0x1f, 0xe4, 0x32, 0x1c, 0xe3, 0xa6, 0x81, 0xc7, 0xf5,
  0xc7, 0x7f, 0x65, 0xd7, 0xb9, 0xe7, 0x16, 0xdc, 0xfc, 0xfd, 0x22, 0x3c,
  0x03, 0x81, 0xf6, 0x33, 0x7f, 0x1d, 0xb1, 0x45, 0xa8, 0xbd, 0x9c, 0xff,
  0x63, 0xda, 0xb8, 0xbb, 0x02, 0xe5, 0xd7, 0x7f, 0xa9, 0x01, 0x04, 0x7f,
  0x04, 0x41, 0x1d, 0xa0, 0x1c, 0x14, 0x32, 0xea, 0x06, 0x6f, 0x7f, 0x5f,
  0xb2, 0xa2, 0xd6, 0x9c, 0x7f, 0xdc, 0xf4, 0x30, 0xe1, 0xf7, 0xfb, 0x36,
  0x18, 0x81, 0x27, 0x47, 0x4a, 0x4d, 0x6b, 0x13, 0x4a, 0x81, 0xaa, 0xe2,
  0xd8, 0x4e, 0x7f, 0x3e, 0xf6, 0x14, 0x2b, 0xb3, 0x9d, 0xd0, 0x28, 0xc0,
  0x7f, 0x0e, 0xcf, 0xf8, 0x26, 0xcb, 0xd0, 0xfc, 0xf7, 0x7f, 0xe2, 0x29,
  0xed, 0x7f, 0x48, 0xcb, 0xc5, 0x32, 0x56, 0xa6, 0x12, 0x73, 0x5b, 0x7f,
  0xe6, 0x26, 0x23, 0x1d, 0x0e, 0x02, 0x38, 0x81, 0xca, 0xfb, 0x3f, 0xf6,
  0x95, 0x54, 0x2c, 0x81, 0x6f, 0x43, 0x74, 0x08, 0x4e, 0xd9, 0x9a, 0x44,
  0x3e, 0xcf, 0xbf, 0x7f, 0x21, 0xa5, 0x81, 0xd8, 0x49, 0xf9, 0xc1, 0x64,
  0x29, 0xf0, 0xa6, 0x12, 0xc7, 0x27, 0x81, 0x78, 0xf7, 0xee, 0x38, 0x0e,
  0x7f, 0xf4, 0xaf, 0xd8, 0x08, 0x5f, 0x7f, 0xdd, 0xde, 0xf0, 0x30, 0xc5,
  0xd8, 0x2b, 0x7e, 0xa8, 0x1c, 0x10, 0x66, 0x81, 0x44, 0xf9, 0x59, 0x7f,
  0x47, 0xdf, 0x2b, 0x70, 0x50, 0x55, 0x6a, 0x1c, 0xba, 0x1b, 0x81, 0x66,
  0x31, 0xfe, 0xa4, 0x3e, 0x81, 0xde, 0xd6, 0x40, 0x13, 0x7f, 0x6a, 0xc4,
  0xb6, 0x30, 0x69, 0x86, 0x3c, 0xf7, 0xfa, 0x23, 0x6d, 0x7f, 0x25, 0xd8,
  0x10, 0xda, 0x81, 0x0b, 0x16, 0xe9, 0xdc, 0x4d, 0x19, 0xc7, 0x19, 0x81,
  0xfa, 0x4d, 0xef, 0x07, 0xee, 0x17, 0x52, 0xfe, 0x0c, 0x81, 0xfe, 0xef,
  0xf7, 0x0b, 0xe1, 0x81, 0xf6, 0x0b, 0x08, 0xda, 0x3b, 0xf0, 0xee, 0xaa,
  0xb1, 0x7f, 0xbe, 0xae, 0x52, 0xc2, 0xeb, 0x68, 0x40, 0x20, 0xde, 0x7f,
  0x7f, 0x54, 0x25, 0x4e, 0xfa, 0x64, 0xce, 0xf7, 0x35, 0x9b, 0x81, 0xe4,
  0x0d, 0x09, 0xd0, 0x6a, 0xf9, 0xc5, 0x81, 0x9d, 0xff, 0xba, 0xd2, 0xe8,
  0x34, 0x62, 0x5e, 0x7f, 0xb3, 0xda, 0x14, 0x31, 0x7f, 0xd7, 0x91, 0x81,
  0xb8, 0xd2, 0x24, 0x48, 0xfc, 0x53, 0x69, 0xb9, 0xa3, 0xf8, 0x50, 0x81,
  0x25, 0x17, 0x81, 0x35, 0xd6, 0x24, 0x12, 0x48, 0x2b, 0xd1, 0xbb, 0x81,
  0x17, 0xe6, 0xd9, 0x2c, 0x58, 0x8a, 0x7f, 0xc0, 0x49, 0xe6, 0x0c, 0x0e,
  0x92, 0xf0, 0xff, 0xff, 0x04, 0x00, 0x00, 0x00, 0xc0, 0x00, 0x00, 0x00,
  0xfd, 0x7d, 0x00, 0x00, 0xa0, 0x16, 0x00, 0x00, 0x0a, 0x05, 0x00, 0x00,
  0x12, 0x04, 0x00, 0x00, 0x0b, 0x11, 0x00, 0x00, 0xd1, 0x07, 0x00, 0x00,
  0x96, 0x18, 0x00, 0x00, 0x97, 0x0a, 0x00, 0x00, 0xe0, 0x09, 0x00, 0x00,
  0xf8, 0xe4, 0xff, 0xff, 0xe4, 0x36, 0x00, 0x00, 0xb1, 0x03, 0x00, 0x00,
  0x70, 0x24, 0x00, 0x00, 0x00, 0x06, 0x00, 0x00, 0x7b, 0x0e, 0x00, 0x00,
  0x40, 0x09, 0x00, 0x00, 0xf6, 0x16, 0x00, 0x00, 0xab, 0xfd, 0xff, 0xff,
  0x97, 0x2c, 0x00, 0x00, 0x71, 0x01, 0x00, 0x00, 0x97, 0x0c, 0x00, 0x00,
  0xf4, 0xfd, 0xff, 0xff, 0x8b, 0x0f, 0x00, 0x00, 0x01, 0x1e, 0x00, 0x00,
  0x8c, 0x06, 0x00, 0x00, 0xf2, 0xf1, 0xff, 0xff, 0xb3, 0x09, 0x00, 0x00,
  0x0a, 0x2e, 0x00, 0x00, 0xaf, 0x02, 0x00, 0x00, 0xdb, 0x1a, 0x00, 0x00,
  0x6b, 0x06, 0x00, 0x00, 0xb4, 0x30, 0x00, 0x00, 0x73, 0x02, 0x00, 0x00,
  0x01, 0x19, 0x00, 0x00, 0x4d, 0xff, 0xff, 0xff, 0xfb, 0xfb, 0xff, 0xff,
  0xd5, 0x07, 0x00, 0x00, 0x71, 0x06, 0x00, 0x00, 0xef, 0x00, 0x00, 0x00,
  0x01, 0x07, 0x00, 0x00, 0xf1, 0x32, 0x00, 0x00, 0xdd, 0xfb, 0xff, 0xff,
  0x92, 0x2f, 0x00, 0x00, 0xf9, 0x10, 0x00, 0x00, 0x8b, 0x04, 0x00, 0x00,
  0x18, 0x11, 0x00, 0x00, 0x65, 0x11, 0x00, 0x00, 0x0f, 0xfb, 0xff, 0xff,
  0x5e, 0xf1, 0xff, 0xff, 0x04, 0x00, 0x00, 0x00, 0xb0, 0x01, 0x00, 0x00,
  0x4f, 0x4e, 0xf1, 0x34, 0x03, 0x03, 0xd5, 0x0f, 0x1f, 0xbe, 0x24, 0x0f,
  0x10, 0x92, 0xe6, 0x24, 0x69, 0x26, 0xb3, 0x01, 0x4b, 0x0d, 0xed, 0xf3,
  0x45, 0x20, 0x11, 0x00, 0xb9, 0x16, 0xf0, 0xc8, 0x7f, 0x0a, 0x7a, 0x18,
  0xe1, 0x19, 0x7f, 0x1a, 0xb6, 0x4d, 0x90, 0xc3, 0x24, 0x9d, 0xdb, 0x00,
  0x6b, 0x7f, 0xb0, 0x58, 0x18, 0x3c, 0xc3, 0x81, 0x2f, 0x2b, 0x7f, 0x2a,
  0xf3, 0xec, 0xf0, 0xfd, 0xc5, 0x7f, 0xa0, 0x1d, 0x36, 0x7f, 0x29, 0xea,
  0x18, 0x11, 0x07, 0x7f, 0x81, 0x56, 0xe2, 0x81, 0xf8, 0xdd, 0x20, 0x56,
  0xb9, 0x7f, 0x74, 0x27, 0x81, 0xb6, 0x47, 0xf2, 0x0e, 0x12, 0x81, 0x66,
  0x38, 0x2a, 0xf9, 0x21, 0x08, 0xfe, 0xe4, 0x1a, 0x1b, 0xaa, 0x1f, 0x08,
  0x0e, 0xad, 0xec, 0xe4, 0x5d, 0xf0, 0xd8, 0xf5, 0x41, 0x17, 0xe7, 0x31,
  0x31, 0x49, 0x0c, 0xff, 0xed, 0x1c, 0xe9, 0xdf, 0x73, 0x0f, 0x58, 0x13,
  0xf0, 0x1e, 0x6a, 0xf6, 0xd3, 0x50, 0x31, 0x3e, 0x26, 0x57, 0x10, 0xf2,
  0xeb, 0xcc, 0x86, 0x58, 0x18, 0x3c, 0x49, 0xe0, 0x21, 0x24, 0xcf, 0x7f,
  0x7f, 0xf8, 0xe6, 0xae, 0xe4, 0x55, 0x48, 0xf1, 0x96, 0x0b, 0x20, 0x8f,
  0x19, 0x3e, 0x10, 0x10, 0xfa, 0x69, 0x12, 0x35, 0x51, 0x7f, 0x20, 0x22,
  0xb3, 0xfa, 0xc8, 0x55, 0x54, 0x03, 0x50, 0x81, 0x0f, 0x94, 0xf6, 0x7f,
  0x37, 0x9a, 0xd1, 0x81, 0x7f, 0x09, 0x7f, 0xa6, 0x81, 0x7f, 0x02, 0x44,
  0x92, 0x7f, 0x7f, 0xeb, 0x81, 0x43, 0x08, 0x7f, 0x1b, 0xf8, 0x7f, 0xf4,
  0x81, 0x7f, 0x1f, 0xb5, 0xac, 0x32, 0x81, 0x69, 0x76, 0x96, 0x1a, 0x7f,
  0x7f, 0x41, 0xeb, 0x7f, 0x7e, 0xb9, 0xe2, 0xf9, 0x75, 0xba, 0xfe, 0x21,
  0xf9, 0xce, 0x81, 0x33, 0xf3, 0x7f, 0x39, 0xe6, 0x1d, 0x1b, 0xd6, 0x40,
  0xf0, 0x07, 0xe1, 0xe7, 0xbe, 0x58, 0x7f, 0xd7, 0x81, 0x0e, 0xc5, 0x7f,
  0x07, 0x1b, 0x13, 0x24, 0x33, 0x5f, 0x23, 0x28, 0x0f, 0xf7, 0xcc, 0x98,
  0xd6, 0xf6, 0xfb, 0x1a, 0x2e, 0x48, 0xe8, 0x7b, 0xf6, 0x74, 0xe1, 0x55,
  0xdf, 0xeb, 0x01, 0x15, 0xf7, 0x0f, 0xfb, 0x01, 0x1a, 0xe7, 0xfd, 0x09,
  0x27, 0x9e, 0xd5, 0x1f, 0x5f, 0x07, 0x08, 0x06, 0xc4, 0x19, 0xff, 0xfe,
  0x14, 0xf5, 0xf8, 0x04, 0x04, 0x07, 0x24, 0x09, 0x1f, 0x0f, 0x7f, 0x00,
  0xf6, 0x31, 0x58, 0x38, 0x01, 0x4f, 0x7f, 0xe6, 0xcd, 0x81, 0xfb, 0xf2,
  0x81, 0xf6, 0xac, 0x27, 0x86, 0x08, 0xc4, 0xf1, 0x12, 0x68, 0xa6, 0x30,
  0xed, 0xd4, 0xe8, 0x7f, 0xaa, 0x28, 0x97, 0xdf, 0xbb, 0x1e, 0x07, 0xe3,
  0xee, 0x3c, 0x81, 0xec, 0xbd, 0x7f, 0x39, 0x18, 0x31, 0xe9, 0x0f, 0x19,
  0xea, 0x2e, 0xcb, 0x49, 0xb4, 0x81, 0x84, 0xde, 0x81, 0x3f, 0x97, 0x6b,
  0xe5, 0xea, 0xfe, 0x10, 0x0c, 0x01, 0xfd, 0x02, 0x12, 0xcc, 0xef, 0xed,
  0xfc, 0xaa, 0xe5, 0x00, 0x63, 0xda, 0x5b, 0x11, 0xbd, 0xfe, 0x04, 0x2a,
  0x12, 0xe9, 0xf6, 0xfd, 0x0f, 0x0c, 0x20, 0x0b, 0x32, 0x0b, 0x49, 0x15,
  0xff, 0x33, 0x6f, 0x06, 0x04, 0x51, 0xc3, 0x37, 0xdf, 0x62, 0xf8, 0xd0,
  0x1a, 0xf3, 0xff, 0xff, 0x04, 0x00, 0x00, 0x00, 0xc0, 0x00, 0x00, 0x00,
  0xef, 0xf3, 0xff, 0xff, 0x6d, 0x03, 0x00, 0x00, 0x50, 0x26, 0x00, 0x00,
  0x64, 0x0a, 0x00, 0x00, 0x0f, 0xfb, 0xff, 0xff, 0x87, 0xe9, 0xff, 0xff,
  0xa5, 0xf6, 0xff, 0xff, 0x9b, 0x29, 0x00, 0x00, 0xc4, 0x1a, 0x00, 0x00,
  0x50, 0xf6, 0xff, 0xff, 0x24, 0xf8, 0xff, 0xff, 0x19, 0xeb, 0xff, 0xff,
  0xa7, 0xf9, 0xff, 0xff, 0xac, 0x35, 0x00, 0x00, 0x2b, 0x23, 0x00, 0x00,
  0xf9, 0xff, 0xff, 0xff, 0x77, 0x12, 0x00, 0x00, 0xf1, 0xeb, 0xff, 0xff,
  0xe6, 0x12, 0x00, 0x00, 0x17, 0xfa, 0xff, 0xff, 0xd2, 0x32, 0x00, 0x00,
  0xd3, 0xf5, 0xff, 0xff, 0x55, 0xf8, 0xff, 0xff, 0x10, 0xfa, 0xff, 0xff,
  0x71, 0x0a, 0x00, 0x00, 0xe5, 0xf3, 0xff, 0xff, 0x05, 0x03, 0x00, 0x00,
  0x0a, 0xf2, 0xff, 0xff, 0x2f, 0x1a, 0x00, 0x00, 0x81, 0xa0, 0xff, 0xff,
  0x0b, 0xf7, 0xff, 0xff, 0x77, 0xff, 0xff, 0xff, 0xb7, 0xef, 0xff, 0xff,
  0xa2, 0xfc, 0xff, 0xff, 0x3e, 0xfa, 0xff, 0xff, 0x81, 0xfa, 0xff, 0xff,
  0x90, 0x1b, 0x00, 0x00, 0x03, 0xec, 0xff, 0xff, 0xf3, 0x01, 0x00, 0x00,
  0xd3, 0xd2, 0xff, 0xff, 0xce, 0xfe, 0xff, 0xff, 0x21, 0x10, 0x00, 0x00,
  0x50, 0xf4, 0xff, 0xff, 0xe7, 0xfc, 0xff, 0xff, 0xb4, 0x06, 0x00, 0x00,
  0x41, 0xfb, 0xff, 0xff, 0x2f, 0x1d, 0x00, 0x00, 0x5b, 0xf3, 0xff, 0xff,
  0xe6, 0xf3, 0xff, 0xff, 0x04, 0x00, 0x00, 0x00, 0x80, 0x01, 0x00, 0x00,
  0x7f, 0xe9, 0x14, 0xe7, 0x1a, 0x3a, 0x0d, 0x26, 0x74, 0xab, 0x36, 0x0e,
  0xd0, 0x3d, 0x0f, 0xce, 0x0e, 0xe7, 0xec, 0xf1, 0x06, 0xc6, 0x04, 0xe6,
  0xcb, 0xe1, 0xdb, 0xd6, 0xe2, 0x51, 0xeb, 0x21, 0x1a, 0xd6, 0x0d, 0xdc,
  0x3d, 0xbf, 0xca, 0x07, 0x19, 0xe9, 0xbb, 0xf9, 0x3e, 0xe0, 0x36, 0xdc,
  0x2d, 0xff, 0xf6, 0x40, 0x36, 0x3f, 0x18, 0x22, 0x47, 0xab, 0xfa, 0x08,
  0x26, 0x12, 0xd8, 0xf0, 0xde, 0xd7, 0xbd, 0xff, 0x02, 0xd2, 0x2d, 0x4a,
  0xff, 0xc5, 0xfe, 0x25, 0xe9, 0x3b, 0xcc, 0x7f, 0xea, 0x2a, 0xea, 0xe4,
  0xc3, 0xf4, 0xf8, 0xeb, 0xcc, 0xeb, 0xdf, 0x26, 0x15, 0xf8, 0x06, 0xab,
  0xd7, 0xea, 0xae, 0x22, 0xaa, 0xdf, 0xf8, 0x34, 0x95, 0xa4, 0xa3, 0xde,
  0xdb, 0x31, 0x81, 0x00, 0x49, 0xa7, 0x21, 0xec, 0x7d, 0x58, 0xe1, 0x00,
  0x2f, 0x5d, 0x0e, 0x9d, 0xd0, 0x06, 0x3f, 0x07, 0xe5, 0x2d, 0x4a, 0xbb,
  0x43, 0xff, 0x4f, 0x62, 0xd0, 0x6c, 0x2c, 0xfb, 0xaa, 0x47, 0xdc, 0x45,
  0x01, 0xe9, 0xf9, 0x22, 0xe3, 0x01, 0xf2, 0x31, 0x4e, 0x60, 0x81, 0xde,
  0x12, 0xed, 0xe7, 0x50, 0xc3, 0xf2, 0xf6, 0x2e, 0xed, 0x05, 0x47, 0x11,
  0x09, 0x0f, 0xca, 0x34, 0xe0, 0x16, 0xd9, 0xe1, 0x10, 0x1d, 0x1f, 0x0e,
  0x39, 0xfd, 0x2e, 0xfe, 0xc8, 0x53, 0x43, 0x10, 0x1b, 0xf2, 0xe2, 0xda,
  0xea, 0xb2, 0x16, 0xcd, 0x00, 0x57, 0xc0, 0xbe, 0xfc, 0xd5, 0x4e, 0x1f,
  0xcb, 0xed, 0xf5, 0x1f, 0x41, 0x11, 0xe1, 0x28, 0xbc, 0xe6, 0x78, 0xf3,
  0xa0, 0xed, 0xf5, 0x12, 0x16, 0xe4, 0xf1, 0x40, 0xd0, 0x32, 0xed, 0x3b,
  0xe3, 0x28, 0xf9, 0x0f, 0xe0, 0x28, 0xd9, 0x2e, 0x7f, 0x3a, 0xf9, 0x09,
  0xbf, 0xbb, 0x3c, 0x81, 0xe9, 0x15, 0xda, 0xc6, 0xf8, 0x49, 0xcd, 0x41,
  0xb3, 0x17, 0x34, 0x0c, 0x48, 0x33, 0x43, 0x0b, 0x20, 0xfc, 0xf5, 0xc1,
  0x2d, 0xb9, 0x01, 0xd3, 0xf1, 0xd8, 0x23, 0xb1, 0xf4, 0xd8, 0x32, 0xfd,
  0xf0, 0x1c, 0x29, 0x3d, 0x5f, 0x0a, 0x10, 0xe9, 0xf4, 0xf8, 0xe1, 0x21,
  0xbf, 0xc4, 0x22, 0x22, 0xcb, 0xc9, 0x0a, 0xbc, 0xa5, 0x0a, 0x81, 0x2d,
  0x0d, 0xcf, 0x2d, 0x0b, 0xe3, 0x13, 0x16, 0x7d, 0xe9, 0xfa, 0x4a, 0x29,
  0xb6, 0xf1, 0x3d, 0x0e, 0x13, 0xe6, 0xe4, 0xc2, 0xdc, 0x35, 0x3c, 0xa1,
  0xd6, 0x50, 0x36, 0xeb, 0xb7, 0x36, 0x52, 0xc1, 0xfc, 0xd3, 0xd7, 0x01,
  0x1a, 0xfc, 0x0b, 0xf6, 0x0d, 0x1d, 0xd7, 0xd2, 0x81, 0xe5, 0x68, 0x1f,
  0x03, 0xe1, 0x1c, 0x01, 0x12, 0x30, 0x03, 0xef, 0xcf, 0x09, 0xf0, 0xd2,
  0x24, 0x08, 0xdb, 0x0a, 0xf7, 0xee, 0xe7, 0xc9, 0x96, 0xc6, 0xda, 0x00,
  0x39, 0xe3, 0xe5, 0x04, 0x3b, 0x00, 0x34, 0xe8, 0x16, 0xd1, 0x26, 0x17,
  0x72, 0xf5, 0xff, 0xff, 0x04, 0x00, 0x00, 0x00, 0x20, 0x00, 0x00, 0x00,
  0xb1, 0xd2, 0xff, 0xff, 0x95, 0xf2, 0xff, 0xff, 0x0b, 0x01, 0x00, 0x00,
  0x05, 0xd2, 0xff, 0xff, 0x72, 0x06, 0x00, 0x00, 0xb9, 0xf7, 0xff, 0xff,
  0x34, 0x32, 0x00, 0x00, 0x7c, 0x2c, 0x00, 0x00, 0x9e, 0xf5, 0xff, 0xff,
  0x04, 0x00, 0x00, 0x00, 0x80, 0x01, 0x00, 0x00, 0xf9, 0x11, 0x7f, 0xf3,
  0xf7, 0x30, 0x01, 0xb2, 0x57, 0xbb, 0x45, 0xad, 0xf5, 0xbc, 0x7f, 0x1c,
  0x3d, 0x3e, 0x4e, 0xb3, 0xbe, 0x1c, 0x7f, 0xe4, 0x06, 0x1d, 0x04, 0xf0,
  0x0e, 0xc7, 0x7f, 0x09, 0x7f, 0xd9, 0xc9, 0xdf, 0x9e, 0xc0, 0xeb, 0x49,
  0x17, 0x44, 0x7f, 0xfc, 0x1a, 0xd9, 0x18, 0xd3, 0x72, 0x74, 0xef, 0x7f,
  0xa8, 0x1f, 0x1c, 0x63, 0xde, 0xf9, 0xff, 0x25, 0x23, 0x88, 0x81, 0xd9,
  0x79, 0x4e, 0xd1, 0x53, 0xbb, 0x19, 0x81, 0xcd, 0x7f, 0xe5, 0xda, 0x2d,
  0x06, 0xd9, 0x13, 0xa7, 0x4c, 0x1c, 0xfa, 0x11, 0xdf, 0x7f, 0x29, 0x0c,
  0x7f, 0xec, 0xf1, 0x8a, 0x5a, 0xbb, 0xce, 0x53, 0xcc, 0x6e, 0x48, 0xdf,
  0x08, 0x3d, 0xaf, 0x7f, 0x7f, 0xf8, 0x97, 0x07, 0x25, 0xac, 0x1a, 0x95,
  0x6b, 0x22, 0xfe, 0xf1, 0x81, 0x1a, 0xb7, 0xf5, 0x08, 0x06, 0x95, 0xda,
  0x81, 0xc0, 0x70, 0x6e, 0x07, 0xd8, 0x6d, 0xf8, 0x7f, 0xcb, 0xc8, 0xe8,
  0x12, 0xec, 0x51, 0xf3, 0x7f, 0xc8, 0xb9, 0xfc, 0x69, 0xd3, 0x7f, 0x2d,
  0xe6, 0x20, 0xd6, 0xf9, 0x4d, 0x37, 0x36, 0xc0, 0xcf, 0x81, 0x1a, 0xd6,
  0x2a, 0xdd, 0x3c, 0x7f, 0x08, 0xc2, 0xb6, 0x51, 0x5f, 0xf5, 0xb5, 0x81,
  0x35, 0xc0, 0x0b, 0x6e, 0xd9, 0x83, 0xb9, 0xc4, 0x30, 0xd9, 0x7f, 0xc1,
  0xf1, 0x11, 0x20, 0xd3, 0x99, 0x81, 0x03, 0xe4, 0x7f, 0x03, 0x3a, 0x30,
  0xf8, 0xe5, 0x98, 0x4e, 0x67, 0x35, 0xf0, 0xb3, 0xf0, 0xf6, 0xe0, 0x7f,
  0xa4, 0xe9, 0x1b, 0x81, 0x5f, 0xf8, 0xdd, 0xac, 0x66, 0x7f, 0xfc, 0xd0,
  0x06, 0x39, 0x1f, 0x06, 0x19, 0x7f, 0x03, 0x10, 0xfc, 0xd2, 0xfd, 0x68,
  0x7f, 0x1f, 0x67, 0x78, 0x2c, 0xd5, 0x87, 0x40, 0x7f, 0x99, 0xae, 0x6c,
  0x2f, 0x03, 0xbc, 0x5f, 0x5a, 0xac, 0x1b, 0x30, 0xb3, 0x9d, 0x81, 0x33,
  0xb4, 0xbc, 0x12, 0x81, 0x3f, 0xe7, 0xea, 0xbd, 0x1b, 0x09, 0x1c, 0x1f,
  0x18, 0xc1, 0x7f, 0x28, 0xb9, 0x45, 0x75, 0xa5, 0x7f, 0xb7, 0xab, 0x61,
  0xc2, 0x19, 0x0e, 0x77, 0xf9, 0x7f, 0x2b, 0xef, 0x56, 0x1b, 0xe2, 0x81,
  0x2e, 0xf9, 0x15, 0x2a, 0x2e, 0x30, 0xf1, 0x0a, 0xb3, 0x7f, 0x41, 0x29,
  0xed, 0xbb, 0x16, 0x6d, 0x12, 0x33, 0x04, 0x7f, 0x11, 0x00, 0x81, 0x2a,
  0xfa, 0xd9, 0xe4, 0x42, 0x38, 0x0a, 0xa5, 0xff, 0xd6, 0x36, 0xc7, 0x7f,
  0x28, 0x06, 0x10, 0xd4, 0x8f, 0x81, 0xf6, 0xfd, 0xaf, 0x39, 0xad, 0x6b,
  0xf7, 0x5a, 0xe2, 0x81, 0xf4, 0xff, 0xe6, 0x81, 0xee, 0x05, 0xf4, 0xbd,
  0x3b, 0x13, 0x18, 0x3e, 0x1d, 0x7f, 0xcb, 0x1d, 0xff, 0x48, 0xea, 0x0f,
  0x7f, 0xe0, 0xb5, 0xf3, 0x44, 0xb2, 0x00, 0x7f, 0x4f, 0x1d, 0xcd, 0x5c,
  0xed, 0xa4, 0x30, 0xee, 0x7f, 0x11, 0x2c, 0x19, 0x2a, 0xf7, 0xff, 0xff,
  0x04, 0x00, 0x00, 0x00, 0xc0, 0x00, 0x00, 0x00, 0x60, 0x08, 0x00, 0x00,
  0xc5, 0xf8, 0xff, 0xff, 0xdb, 0x15, 0x00, 0x00, 0xe7, 0x08, 0x00, 0x00,
  0xcf, 0x0d, 0x00, 0x00, 0xec, 0xff, 0xff, 0xff, 0x84, 0x09, 0x00, 0x00,
  0x25, 0x0e, 0x00, 0x00, 0x44, 0xf8, 0xff, 0xff, 0x92, 0xfa, 0xff, 0xff,
  0xd7, 0xfc, 0xff, 0xff, 0x66, 0x2b, 0x00, 0x00, 0xb3, 0x0c, 0x00, 0x00,
  0xda, 0x0d, 0x00, 0x00, 0x4c, 0x13, 0x00, 0x00, 0x70, 0xea, 0xff, 0xff,
  0xed, 0xf5, 0xff, 0xff, 0x25, 0x1e, 0x00, 0x00, 0x43, 0x0a, 0x00, 0x00,
  0x61, 0x14, 0x00, 0x00, 0x34, 0x0d, 0x00, 0x00, 0x81, 0x68, 0x00, 0x00,
  0x98, 0x52, 0x00, 0x00, 0x4e, 0x03, 0x00, 0x00, 0xfc, 0xf9, 0xff, 0xff,
  0x86, 0x07, 0x00, 0x00, 0x44, 0xfd, 0xff, 0xff, 0x5b, 0xfc, 0xff, 0xff,
  0xf8, 0x09, 0x00, 0x00, 0x16, 0x07, 0x00, 0x00, 0x35, 0x1a, 0x00, 0x00,
  0xc6, 0x16, 0x00, 0x00, 0x3c, 0xfd, 0xff, 0xff, 0x8b, 0x01, 0x00, 0x00,
  0xda, 0x1e, 0x00, 0x00, 0x4a, 0x10, 0x00, 0x00, 0x44, 0x24, 0x00, 0x00,
  0x12, 0x09, 0x00, 0x00, 0x97, 0x04, 0x00, 0x00, 0xfc, 0xf8, 0xff, 0xff,
  0x8d, 0x0f, 0x00, 0x00, 0xf7, 0xf7, 0xff, 0xff, 0x4f, 0x29, 0x00, 0x00,
  0xfc, 0xfe, 0xff, 0xff, 0xc3, 0x00, 0x00, 0x00, 0xe9, 0x06, 0x00, 0x00,
  0x68, 0xf6, 0xff, 0xff, 0x58, 0x12, 0x00, 0x00, 0xf6, 0xf7, 0xff, 0xff,
  0x04, 0x00, 0x00, 0x00, 0x00, 0x06, 0x00, 0x00, 0xce, 0xc6, 0x64, 0x00,
  0x60, 0xe8, 0xa0, 0x8c, 0x41, 0x95, 0x8b, 0xf8, 0x31, 0x04, 0xcf, 0x35,
  0xc3, 0xd5, 0xb4, 0xba, 0xb3, 0x87, 0xf9, 0x69, 0x84, 0x02, 0x47, 0xca,
  0x6d, 0xfc, 0xe5, 0xa2, 0x4f, 0xbb, 0x92, 0x3a, 0x81, 0xa1, 0x9a, 0x1b,
  0x49, 0x9f, 0x8d, 0x60, 0x35, 0x89, 0x72, 0xe3, 0xcf, 0x2b, 0xc5, 0x08,
  0xe4, 0x5b, 0x30, 0x0a, 0x5c, 0xa4, 0xa5, 0x70, 0x4b, 0xef, 0x23, 0x4c,
  0x54, 0xdb, 0x2c, 0x7f, 0xd8, 0x04, 0x2c, 0x25, 0x2d, 0x1c, 0xc1, 0x76,
  0x15, 0x0e, 0x68, 0xc7, 0x25, 0x72, 0xff, 0x26, 0x3e, 0x48, 0xf9, 0xc9,
  0xcd, 0x11, 0xf3, 0x9e, 0xe8, 0x2a, 0xde, 0xc6, 0x37, 0x30, 0xcd, 0x6b,
  0xf5, 0xcf, 0x66, 0x62, 0xa7, 0x61, 0xe8, 0x7f, 0x67, 0xfa, 0x60, 0x99,
  0xac, 0xe8, 0x2c, 0x43, 0xa4, 0xfb, 0x7a, 0x20, 0xf1, 0x5d, 0x53, 0x16,
  0xc4, 0x5b, 0x58, 0x68, 0xa3, 0xf7, 0xa9, 0x9c, 0xb2, 0x6d, 0x73, 0xed,
  0x93, 0xbd, 0x18, 0xf8, 0xb4, 0x7e, 0xe1, 0xac, 0x47, 0xff, 0x21, 0xe6,
  0xb7, 0x2e, 0x8c, 0x2b, 0x2e, 0x13, 0x3b, 0x02, 0x58, 0x5d, 0x45, 0x04,
  0x7f, 0x60, 0xc6, 0x0a, 0x6f, 0xa7, 0xc0, 0x8c, 0xe5, 0x8d, 0xc8, 0x64,
  0x28, 0x9b, 0x55, 0x06, 0xdf, 0xd9, 0xef, 0xef, 0xa2, 0xe3, 0x27, 0x2e,
  0xe3, 0xa4, 0x9f, 0x0a, 0x45, 0x1c, 0xd2, 0xb0, 0x34, 0x69, 0xf9, 0x34,
  0xde, 0xe0, 0x1b, 0x0f, 0x3d, 0x5b, 0xf1, 0x33, 0x1a, 0xd3, 0xee, 0xb3,
  0xff, 0xf8, 0xb6, 0x0a, 0x70, 0x99, 0x57, 0x17, 0xe9, 0xf6, 0x5c, 0xba,
  0xc6, 0x22, 0xb4, 0xc3, 0x62, 0x75, 0x0c, 0x8c, 0xc5, 0xf2, 0x81, 0x2e,
  0xc5, 0xb9, 0xab, 0xa0, 0x1f, 0x6e, 0x25, 0x3b, 0x71, 0xa8, 0x60, 0x64,
  0x36, 0x90, 0x29, 0x3e, 0x7f, 0x8c, 0x0b, 0xc0, 0x24, 0x74, 0x32, 0x33,
  0x28, 0x44, 0xbb, 0x75, 0x29, 0x42, 0x1b, 0xed, 0x9b, 0xc7, 0xd4, 0xaa,
  0x3f, 0x2a, 0x18, 0x9d, 0xbd, 0x0e, 0xbd, 0x1d, 0x8f, 0xe5, 0x39, 0x21,
  0xab, 0xd3, 0x36, 0x69, 0xe7, 0x1f, 0x24, 0xc4, 0x0c, 0xcc, 0x6a, 0x45,
  0xa5, 0xb9, 0xf7, 0x3e, 0xeb, 0xa8, 0xff, 0xa1, 0x4f, 0x31, 0x6c, 0x83,
  0x2a, 0xfe, 0xfb, 0x5f, 0xae, 0x82, 0x67, 0x34, 0xbe, 0xa7, 0xeb, 0xbf,
  0xde, 0x89, 0x2a, 0xad, 0x98, 0x81, 0xcc, 0x90, 0xf0, 0x20, 0x90, 0x4b,
  0x50, 0x31, 0x11, 0xeb, 0x8b, 0x65, 0xaa, 0xd0, 0x7e, 0x4c, 0xe5, 0xdf,
  0xc1, 0x7d, 0xf7, 0x01, 0x7f, 0x0c, 0xaa, 0x17, 0x42, 0xb1, 0x38, 0x53,
  0x25, 0x14, 0x07, 0x7b, 0x3d, 0x2c, 0x03, 0x60, 0xc3, 0x6f, 0x1c, 0x43,
  0xbc, 0x72, 0xf2, 0x2b, 0x0c, 0x22, 0x4a, 0x6f, 0xa0, 0x62, 0xfd, 0xeb,
  0x68, 0xbc, 0x5f, 0x45, 0x3d, 0x03, 0x63, 0x8e, 0x0e, 0x23, 0xcb, 0x9c,
  0x3d, 0x18, 0xaa, 0xeb, 0x01, 0x24, 0x2b, 0x67, 0x03, 0xce, 0xa2, 0xae,
  0xcf, 0x69, 0xba, 0x0e, 0x20, 0xe4, 0x57, 0x70, 0x84, 0x60, 0x47, 0x4b,
  0xb3, 0x15, 0xa4, 0x7b, 0x7b, 0xd9, 0x33, 0xfd, 0x7b, 0xfd, 0xf1, 0x4c,
  0x54, 0x69, 0x87, 0x8a, 0xf4, 0xe5, 0xfb, 0x7f, 0x00, 0x02, 0x7a, 0x2e,
  0x55, 0x83, 0xc4, 0x85, 0x2a, 0x33, 0xef, 0x36, 0xe1, 0xa2, 0x89, 0xdc,
  0x0e, 0xfe, 0x8d, 0xad, 0x00, 0x69, 0x81, 0x86, 0x79, 0xf1, 0x00, 0x17,
  0xee, 0xb8, 0x97, 0x6b, 0x53, 0xfa, 0x1b, 0xe5, 0xa5, 0x0c, 0xd5, 0xc9,
  0x2f, 0xb8, 0x37, 0xa6, 0x54, 0x12, 0x8e, 0x3a, 0xd0, 0x54, 0x5e, 0xce,
  0xfb, 0x69, 0x6b, 0x1b, 0x2e, 0x24, 0x21, 0xca, 0x64, 0x53, 0xec, 0x15,
  0xcb, 0x4c, 0xaf, 0xd1, 0xf6, 0x23, 0x3b, 0xcb, 0x26, 0x3b, 0x81, 0xa6,
  0xde, 0x50, 0xb1, 0xbd, 0x38, 0x64, 0x72, 0x4c, 0xe4, 0x11, 0xe8, 0x27,
  0xea, 0x72, 0xa4, 0xdd, 0xb3, 0xd1, 0xfb, 0xc7, 0x76, 0x16, 0xfd, 0x72,
  0x7f, 0x39, 0x41, 0x20, 0x7b, 0x65, 0xc0, 0x78, 0x04, 0xb6, 0x27, 0xca,
  0xb0, 0x9e, 0x48, 0x33, 0x26, 0x54, 0x21, 0x9d, 0xa1, 0xac, 0xd4, 0x52,
  0x5a, 0x02, 0x20, 0xf4, 0x92, 0xc3, 0x3c, 0x38, 0xcc, 0x57, 0xea, 0xce,
  0xf0, 0x72, 0xbf, 0x04, 0xe1, 0xcb, 0xa5, 0xa5, 0x0a, 0x46, 0xcd, 0x06,
  0x5e, 0x0e, 0xe2, 0x24, 0xb5, 0x3e, 0xee, 0x0c, 0xd3, 0x10, 0x38, 0xb4,
  0x81, 0xd7, 0xcd, 0xb0, 0x1d, 0xf7, 0x13, 0x6d, 0xb2, 0xce, 0x53, 0x9d,
  0x67, 0x0b, 0xd3, 0x7c, 0x8f, 0xbc, 0xd0, 0x14, 0xfe, 0xb9, 0xea, 0x2b,
  0x7b, 0x30, 0x91, 0xc8, 0xda, 0xa1, 0xbf, 0x6f, 0x6b, 0xd2, 0x67, 0x61,
  0x5e, 0x72, 0x53, 0x3c, 0x4c, 0xab, 0x15, 0xef, 0x5c, 0x4a, 0x46, 0xdf,
  0x81, 0xc4, 0xc8, 0x24, 0x44, 0xf0, 0x73, 0xdf, 0xce, 0x2e, 0xf1, 0x1c,
  0xbb, 0xb7, 0x51, 0x29, 0x11, 0x68, 0xf5, 0x2b, 0xbd, 0xf0, 0x1d, 0x46,
  0xd0, 0x4f, 0xd9, 0x0a, 0xe2, 0x1f, 0xfb, 0xe2, 0xd0, 0xad, 0x63, 0x50,
  0x58, 0xf2, 0xfe, 0x91, 0xc2, 0xe7, 0x51, 0x5b, 0xf0, 0xbd, 0xb5, 0xb9,
  0xba, 0xca, 0x18, 0x25, 0xe0, 0x2c, 0x09, 0x48, 0x9f, 0xc7, 0xca, 0x2c,
  0x9e, 0x9b, 0xbe, 0x30, 0x50, 0xf7, 0xea, 0x11, 0x6a, 0x7f, 0x2a, 0x9e,
  0x07, 0xa0, 0x2d, 0x58, 0x4e, 0x9b, 0x32, 0xa9, 0x0b, 0xd9, 0xd9, 0x43,
  0x56, 0x9b, 0x36, 0x96, 0x33, 0xf5, 0xa9, 0x01, 0x64, 0xf9, 0x98, 0x81,
  0x67, 0x05, 0x98, 0x0f, 0x2b, 0x0a, 0x44, 0x69, 0x49, 0x3c, 0x37, 0x56,
  0x0c, 0x32, 0x3d, 0x8f, 0x13, 0xfd, 0xb6, 0xf4, 0xb0, 0x6b, 0x6b, 0xaf,
  0x07, 0x69, 0xc6, 0xe2, 0x13, 0xa7, 0xd2, 0xa9, 0xb7, 0xf7, 0x59, 0xbc,
  0x1f, 0x62, 0xc2, 0x26, 0x24, 0x27, 0x8d, 0x3d, 0xe9, 0xc9, 0xc4, 0xbc,
  0x7f, 0x4a, 0x3d, 0x35, 0x64, 0x44, 0xd4, 0x29, 0xd6, 0x2b, 0xd5, 0x32,
  0x95, 0x05, 0x21, 0x05, 0xb1, 0x40, 0x30, 0x30, 0xd5, 0x29, 0xcb, 0xb6,
  0x0c, 0xc9, 0x3e, 0x5b, 0x34, 0x5e, 0x67, 0xf9, 0x1d, 0xa4, 0x2a, 0x5b,
  0xe3, 0x9f, 0xcd, 0x93, 0x39, 0xb8, 0x62, 0x39, 0x6b, 0x47, 0x9d, 0x3e,
  0x0d, 0x27, 0x69, 0x7b, 0xa9, 0xfc, 0x10, 0xd8, 0x27, 0x4f, 0xa0, 0x29,
  0x74, 0xd9, 0xe3, 0x4c, 0xcd, 0xf7, 0x21, 0x0c, 0xdd, 0x6f, 0xa7, 0xef,
  0xb0, 0xe7, 0xf6, 0xe8, 0x11, 0x0a, 0x41, 0x81, 0x94, 0x6e, 0x76, 0xb0,
  0xf4, 0x81, 0x89, 0x04, 0xf7, 0x50, 0x85, 0xc9, 0xd6, 0x24, 0x41, 0xbc,
  0x30, 0xe5, 0x3e, 0xe2, 0x6f, 0xca, 0x15, 0xa3, 0x1e, 0x91, 0x03, 0x7a,
  0x1e, 0x25, 0xff, 0x2d, 0x4a, 0xde, 0x87, 0x85, 0xd9, 0x23, 0xf2, 0x46,
  0xcf, 0xfb, 0xc4, 0xf9, 0x8a, 0x14, 0x33, 0x15, 0x13, 0x1c, 0x4e, 0x26,
  0x3b, 0xa4, 0x64, 0x60, 0x61, 0xbb, 0x1d, 0xf2, 0x99, 0x21, 0xc2, 0x3d,
  0x67, 0x90, 0x72, 0x3b, 0xe7, 0x53, 0xc3, 0x0b, 0x50, 0xa9, 0x3a, 0xb5,
  0x9c, 0x81, 0xb9, 0x2f, 0x71, 0xa5, 0x21, 0xfd, 0x07, 0xb4, 0xc3, 0x93,
  0x2d, 0x82, 0xa6, 0x0d, 0xa4, 0x1f, 0x53, 0x9f, 0xee, 0x43, 0x42, 0x5d,
  0x9b, 0x59, 0x0c, 0x3b, 0x07, 0x06, 0x9a, 0xfc, 0xef, 0x56, 0x23, 0xa9,
  0xe0, 0xd4, 0xb3, 0xd6, 0x12, 0xc8, 0xa7, 0xac, 0x4b, 0xaa, 0xa3, 0x29,
  0x10, 0x06, 0xcf, 0x73, 0x7f, 0x27, 0xe9, 0x34, 0x24, 0xd5, 0xe9, 0x85,
  0x9e, 0xd2, 0x99, 0x8f, 0xdc, 0xb5, 0xb4, 0x6f, 0x66, 0x54, 0x53, 0xa3,
  0x6a, 0xbe, 0x54, 0x12, 0x08, 0xc6, 0xc2, 0x32, 0x0f, 0x2f, 0xd7, 0xaf,
  0x81, 0xe4, 0x23, 0xfc, 0x72, 0xd8, 0x4f, 0xb6, 0x41, 0xb3, 0xc7, 0x55,
  0x18, 0x0c, 0xfe, 0xf1, 0xef, 0x1e, 0xab, 0x98, 0x78, 0x6b, 0x91, 0xe6,
  0x02, 0x10, 0x25, 0xf0, 0xa7, 0xb2, 0xaa, 0x59, 0x16, 0xc8, 0xab, 0x94,
  0x59, 0xbf, 0x69, 0x2f, 0x9f, 0x5a, 0xb3, 0x8e, 0x69, 0x8d, 0x82, 0xa6,
  0x27, 0x4d, 0x89, 0xb8, 0x51, 0xaa, 0x16, 0x15, 0x5f, 0xfb, 0x81, 0x68,
  0xba, 0xac, 0xba, 0x86, 0x2a, 0x37, 0x07, 0x01, 0xfd, 0xe8, 0xb9, 0x89,
  0xfd, 0xee, 0xf6, 0x59, 0x38, 0x84, 0x5e, 0xe0, 0x4f, 0xa5, 0x12, 0x4c,
  0x77, 0x8b, 0x10, 0x8e, 0x4c, 0xad, 0x6d, 0x5d, 0x1f, 0x91, 0x20, 0xde,
  0x47, 0xdc, 0x90, 0x7c, 0x6f, 0xae, 0x7d, 0xe4, 0xf8, 0xfb, 0x41, 0x25,
  0x5a, 0x3f, 0x56, 0xdc, 0xb9, 0x3b, 0x1e, 0x30, 0x78, 0x04, 0x88, 0x0f,
  0x94, 0x0b, 0x14, 0x81, 0xbc, 0x9f, 0x76, 0x18, 0xb3, 0xcb, 0x9c, 0xbe,
  0xab, 0x94, 0xc2, 0x98, 0x50, 0x7e, 0x61, 0x30, 0x7f, 0x44, 0xdf, 0x89,
  0x93, 0x2b, 0x23, 0xd0, 0x68, 0xae, 0xc1, 0xdd, 0x40, 0xe9, 0x37, 0x47,
  0x78, 0x40, 0x05, 0xc0, 0xe8, 0x11, 0x35, 0x23, 0xcc, 0xb1, 0x42, 0xe4,
  0xb9, 0x9b, 0x70, 0xee, 0x1f, 0xda, 0x2d, 0x44, 0x9b, 0xb6, 0xa3, 0xe4,
  0x47, 0xab, 0x8b, 0x21, 0x1c, 0x81, 0xc9, 0x02, 0x33, 0xeb, 0x83, 0xd8,
  0xa6, 0x28, 0x0e, 0x84, 0x2f, 0x3f, 0xe2, 0xb7, 0xfb, 0xb9, 0x89, 0x14,
  0x38, 0x96, 0x12, 0x5d, 0x47, 0x83, 0x17, 0x35, 0x4d, 0xb4, 0xd6, 0xdb,
  0x9b, 0x4e, 0x87, 0xef, 0x4e, 0x15, 0x2b, 0x0f, 0x47, 0x94, 0xe8, 0xf0,
  0xa3, 0xfb, 0xf2, 0x07, 0x9c, 0x92, 0x5d, 0x50, 0xb6, 0xd2, 0x07, 0xee,
  0x7f, 0x33, 0xcd, 0xc0, 0x14, 0x3f, 0x5c, 0x0a, 0x35, 0x36, 0x23, 0x26,
  0x08, 0x15, 0xb0, 0x02, 0xfc, 0xc4, 0xac, 0xa3, 0xc2, 0x4a, 0xd3, 0x60,
  0xa3, 0x5d, 0x33, 0x26, 0xbe, 0x4d, 0xf1, 0x71, 0x23, 0x10, 0xd2, 0xa8,
  0x9e, 0xca, 0xc7, 0x0a, 0x38, 0x75, 0x2f, 0xb1, 0xf8, 0x4f, 0x65, 0xe3,
  0x58, 0x0b, 0x55, 0xc1, 0xbf, 0x24, 0xff, 0xf3, 0xaa, 0x39, 0xb0, 0x05,
  0x48, 0x32, 0xfb, 0x11, 0x54, 0x4c, 0xc1, 0xc5, 0xc1, 0xce, 0xac, 0x66,
  0xba, 0x12, 0x35, 0x29, 0x78, 0x32, 0x5c, 0x7f, 0x47, 0xf9, 0x52, 0x29,
  0x8b, 0xb4, 0xa0, 0xa6, 0xdb, 0x89, 0x28, 0x3a, 0xa1, 0xaa, 0xfa, 0x5d,
  0x4e, 0x61, 0xac, 0x43, 0xd6, 0x10, 0x95, 0xb6, 0x81, 0x45, 0x9f, 0xc2,
  0xb6, 0xa7, 0xf2, 0xe3, 0x8c, 0x0f, 0x45, 0x38, 0x0b, 0x98, 0xcc, 0x12,
  0x59, 0x24, 0xa6, 0x29, 0x8a, 0xee, 0xfc, 0x27, 0x41, 0x4d, 0x43, 0xd9,
  0xc0, 0x17, 0x90, 0x21, 0x73, 0x0d, 0xaa, 0xb6, 0x7a, 0xad, 0xde, 0xe6,
  0xb7, 0x7b, 0x27, 0xcd, 0xc3, 0xf0, 0x4c, 0x18, 0xed, 0x1c, 0xee, 0xed,
  0xa5, 0x05, 0x7f, 0x10, 0x4f, 0x0f, 0xc0, 0xd4, 0x08, 0x71, 0x04, 0x7d,
  0x45, 0x7e, 0xe2, 0x6a, 0x08, 0x7e, 0xe1, 0xfa, 0x34, 0xbd, 0xc4, 0x26,
  0x9d, 0x1a, 0xc1, 0x0b, 0x76, 0xf2, 0x02, 0xd8, 0xa1, 0x14, 0x3f, 0x09,
  0x12, 0x3d, 0x64, 0x9b, 0x42, 0x9e, 0x93, 0x0e, 0x92, 0x1a, 0xd2, 0x78,
  0xf3, 0xaa, 0xac, 0x0a, 0xc1, 0xb9, 0x96, 0xe3, 0x12, 0xf2, 0x13, 0x19,
  0x5d, 0xb2, 0xf9, 0x66, 0x7e, 0xe1, 0x7f, 0x56, 0x4d, 0x9e, 0x1e, 0x5e,
  0x2c, 0x38, 0xbe, 0x9a, 0xdb, 0xe8, 0xaa, 0xa3, 0x5c, 0x81, 0xca, 0x69,
  0xd6, 0xa3, 0x20, 0x2b, 0x3b, 0x1e, 0xdc, 0x64, 0x27, 0x88, 0x3c, 0x20,
  0xb1, 0xb1, 0x2b, 0x67, 0x2a, 0x0f, 0x9f, 0xf3, 0x5b, 0xda, 0xb8, 0x8c,
  0x36, 0xb5, 0xdc, 0x24, 0x00, 0xc5, 0xd9, 0x1a, 0x02, 0xfe, 0xff, 0xff,
  0x04, 0x00, 0x00, 0x00, 0x80, 0x00, 0x00, 0x00, 0x6c, 0xfe, 0xff, 0xff,
  0xa8, 0x01, 0x00, 0x00, 0xbb, 0x01, 0x00, 0x00, 0x3b, 0xff, 0xff, 0xff,
  0xca, 0xfe, 0xff, 0xff, 0xdb, 0x01, 0x00, 0x00, 0x5a, 0xfe, 0xff, 0xff,
  0x98, 0x01, 0x00, 0x00, 0x9a, 0xff, 0xff, 0xff, 0xdb, 0xfe, 0xff, 0xff,
  0x90, 0x01, 0x00, 0x00, 0xae, 0x01, 0x00, 0x00, 0x93, 0x00, 0x00, 0x00,
  0x7e, 0x01, 0x00, 0x00, 0xeb, 0x01, 0x00, 0x00, 0x20, 0xfe, 0xff, 0xff,
  0x5c, 0xfe, 0xff, 0xff, 0x08, 0x01, 0x00, 0x00, 0x54, 0xff, 0xff, 0xff,
  0xe3, 0xfe, 0xff, 0xff, 0x2e, 0xfe, 0xff, 0xff, 0xb3, 0x01, 0x00, 0x00,
  0x18, 0xfe, 0xff, 0xff, 0xeb, 0x01, 0x00, 0x00, 0x72, 0x00, 0x00, 0x00,
  0x06, 0xfd, 0xff, 0xff, 0x5a, 0xff, 0xff, 0xff, 0xe6, 0x03, 0x00, 0x00,
  0x4c, 0xff, 0xff, 0xff, 0x3f, 0x02, 0x00, 0x00, 0x8c, 0x00, 0x00, 0x00,
  0x6b, 0xfe, 0xff, 0xff, 0x8e, 0xfe, 0xff, 0xff, 0x04, 0x00, 0x00, 0x00,
  0x40, 0x00, 0x00, 0x00, 0x4a, 0xd7, 0xce, 0x67, 0xb3, 0x03, 0xc8, 0x3c,
  0x7f, 0xe3, 0xd3, 0xe8, 0x04, 0x43, 0xc5, 0x17, 0x6c, 0xac, 0xdf, 0xa3,
  0x57, 0x41, 0x53, 0xbf, 0xd6, 0xbc, 0xe1, 0x58, 0x0a, 0xb6, 0xfd, 0x3a,
  0x36, 0x58, 0x55, 0xbb, 0xb0, 0x57, 0xfa, 0x14, 0xcf, 0xf2, 0x2f, 0x7a,
  0x75, 0x34, 0x32, 0x03, 0xd7, 0x07, 0xbd, 0x9e, 0xaf, 0x2e, 0x1a, 0x7d,
  0x5a, 0x44, 0xca, 0xe5, 0x71, 0x81, 0x85, 0xf1, 0xda, 0xfe, 0xff, 0xff,
  0x04, 0x00, 0x00, 0x00, 0x08, 0x00, 0x00, 0x00, 0x02, 0xbe, 0x00, 0x00,
  0x27, 0x2b, 0xff, 0xff, 0xee, 0xfe, 0xff, 0xff, 0x04, 0x00, 0x00, 0x00,
  0x20, 0x00, 0x00, 0x00, 0x00, 0x00, 0x00, 0x00, 0x00, 0x00, 0x00, 0x00,
  0x00, 0x00, 0x00, 0x00, 0x01, 0x00, 0x00, 0x00, 0x00, 0x00, 0x00, 0x00,
  0x01, 0x00, 0x00, 0x00, 0x00, 0x00, 0x00, 0x00, 0x00, 0x00, 0x00, 0x00,
  0x88, 0x94, 0xff, 0xff, 0x8c, 0x94, 0xff, 0xff, 0x0f, 0x00, 0x00, 0x00,
  0x4d, 0x4c, 0x49, 0x52, 0x20, 0x43, 0x6f, 0x6e, 0x76, 0x65, 0x72, 0x74,
  0x65, 0x64, 0x2e, 0x00, 0x01, 0x00, 0x00, 0x00, 0x14, 0x00, 0x00, 0x00,
  0x00, 0x00, 0x0e, 0x00, 0x18, 0x00, 0x14, 0x00, 0x10, 0x00, 0x0c, 0x00,
  0x08, 0x00, 0x04, 0x00, 0x0e, 0x00, 0x00, 0x00, 0x14, 0x00, 0x00, 0x00,
  0x1c, 0x00, 0x00, 0x00, 0x64, 0x07, 0x00, 0x00, 0x68, 0x07, 0x00, 0x00,
  0x6c, 0x07, 0x00, 0x00, 0x04, 0x00, 0x00, 0x00, 0x6d, 0x61, 0x69, 0x6e,
  0x00, 0x00, 0x00, 0x00, 0x1c, 0x00, 0x00, 0x00, 0x00, 0x07, 0x00, 0x00,
  0x98, 0x06, 0x00, 0x00, 0x40, 0x06, 0x00, 0x00, 0x0c, 0x06, 0x00, 0x00,
  0xcc, 0x05, 0x00, 0x00, 0x98, 0x05, 0x00, 0x00, 0x3c, 0x05, 0x00, 0x00,
  0x00, 0x05, 0x00, 0x00, 0xc0, 0x04, 0x00, 0x00, 0x78, 0x04, 0x00, 0x00,
  0x3c, 0x04, 0x00, 0x00, 0x08, 0x04, 0x00, 0x00, 0xc8, 0x03, 0x00, 0x00,
  0x94, 0x03, 0x00, 0x00, 0x48, 0x03, 0x00, 0x00, 0x0c, 0x03, 0x00, 0x00,
  0xcc, 0x02, 0x00, 0x00, 0x84, 0x02, 0x00, 0x00, 0x48, 0x02, 0x00, 0x00,
  0x14, 0x02, 0x00, 0x00, 0xd4, 0x01, 0x00, 0x00, 0x8c, 0x01, 0x00, 0x00,
  0x50, 0x01, 0x00, 0x00, 0x1c, 0x01, 0x00, 0x00, 0xdc, 0x00, 0x00, 0x00,
  0x8c, 0x00, 0x00, 0x00, 0x40, 0x00, 0x00, 0x00, 0x04, 0x00, 0x00, 0x00,
  0xe2, 0xf9, 0xff, 0xff, 0x1c, 0x00, 0x00, 0x00, 0x00, 0x00, 0x00, 0x09,
  0x1c, 0x00, 0x00, 0x00, 0x20, 0x00, 0x00, 0x00, 0x04, 0x00, 0x00, 0x00,
  0x00, 0x00, 0x06, 0x00, 0x08, 0x00, 0x04, 0x00, 0x06, 0x00, 0x00, 0x00,
  0x00, 0x00, 0x80, 0x3f, 0x01, 0x00, 0x00, 0x00, 0x47, 0x00, 0x00, 0x00,
  0x01, 0x00, 0x00, 0x00, 0x46, 0x00, 0x00, 0x00, 0xb6, 0xf9, 0xff, 0xff,
  0x1c, 0x00, 0x00, 0x00, 0x00, 0x00, 0x00, 0x01, 0x24, 0x00, 0x00, 0x00,
  0x28, 0x00, 0x00, 0x00, 0x00, 0x00, 0x0a, 0x00, 0x10, 0x00, 0x0f, 0x00,
  0x08, 0x00, 0x04, 0x00, 0x0a, 0x00, 0x00, 0x00, 0x01, 0x00, 0x00, 0x00,
  0x01, 0x00, 0x00, 0x00, 0x00, 0x00, 0x00, 0x01, 0x01, 0x00, 0x00, 0x00,
  0x46, 0x00, 0x00, 0x00, 0x03, 0x00, 0x00, 0x00, 0x45, 0x00, 0x00, 0x00,
  0x03, 0x00, 0x00, 0x00, 0x02, 0x00, 0x00, 0x00, 0xfe, 0xf9, 0xff, 0xff,
  0x1c, 0x00, 0x00, 0x00, 0x00, 0x00, 0x00, 0x01, 0x28, 0x00, 0x00, 0x00,
  0x2c, 0x00, 0x00, 0x00, 0x0c, 0x00, 0x14, 0x00, 0x13, 0x00, 0x0c, 0x00,
  0x08, 0x00, 0x07, 0x00, 0x0c, 0x00, 0x00, 0x00, 0x00, 0x00, 0x00, 0x01,
  0x01, 0x00, 0x00, 0x00, 0x01, 0x00, 0x00, 0x00, 0x00, 0x00, 0x00, 0x01,
  0x01, 0x00, 0x00, 0x00, 0x45, 0x00, 0x00, 0x00, 0x03, 0x00, 0x00, 0x00,
  0x44, 0x00, 0x00, 0x00, 0x05, 0x00, 0x00, 0x00, 0x04, 0x00, 0x00, 0x00,
  0x4a, 0xfa, 0xff, 0xff, 0x10, 0x00, 0x00, 0x00, 0x00, 0x00, 0x00, 0x01,
  0x18, 0x00, 0x00, 0x00, 0x1c, 0x00, 0x00, 0x00, 0x3c, 0xfa, 0xff, 0xff,
  0x00, 0x00, 0x00, 0x03, 0x01, 0x00, 0x00, 0x00, 0x01, 0x00, 0x00, 0x00,
  0x01, 0x00, 0x00, 0x00, 0x44, 0x00, 0x00, 0x00, 0x03, 0x00, 0x00, 0x00,
  0x43, 0x00, 0x00, 0x00, 0x07, 0x00, 0x00, 0x00, 0x06, 0x00, 0x00, 0x00,
  0xea, 0xfa, 0xff, 0xff, 0x14, 0x00, 0x00, 0x00, 0x00, 0x00, 0x00, 0x0b,
  0x10, 0x00, 0x00, 0x00, 0x14, 0x00, 0x00, 0x00, 0x02, 0x00, 0x00, 0x00,
  0x74, 0x96, 0xff, 0xff, 0x01, 0x00, 0x00, 0x00, 0x43, 0x00, 0x00, 0x00,
  0x02, 0x00, 0x00, 0x00, 0x3f, 0x00, 0x00, 0x00, 0x42, 0x00, 0x00, 0x00,
  0xb6, 0xfa, 0xff, 0xff, 0x10, 0x00, 0x00, 0x00, 0x00, 0x00, 0x00, 0x01,
  0x14, 0x00, 0x00, 0x00, 0x18, 0x00, 0x00, 0x00, 0x5e, 0xfb, 0xff, 0xff,
  0x01, 0x00, 0x00, 0x00, 0x01, 0x00, 0x00, 0x00, 0x01, 0x00, 0x00, 0x00,
  0x42, 0x00, 0x00, 0x00, 0x03, 0x00, 0x00, 0x00, 0x41, 0x00, 0x00, 0x00,
  0x09, 0x00, 0x00, 0x00, 0x08, 0x00, 0x00, 0x00, 0x52, 0xfb, 0xff, 0xff,
  0x14, 0x00, 0x00, 0x00, 0x00, 0x00, 0x00, 0x02, 0x20, 0x00, 0x00, 0x00,
  0x24, 0x00, 0x00, 0x00, 0x01, 0x00, 0x00, 0x00, 0x42, 0xfb, 0xff, 0xff,
  0x00, 0x00, 0x00, 0x03, 0x01, 0x00, 0x00, 0x00, 0x01, 0x00, 0x00, 0x00,
  0x01, 0x00, 0x00, 0x00, 0x01, 0x00, 0x00, 0x00, 0x41, 0x00, 0x00, 0x00,
  0x03, 0x00, 0x00, 0x00, 0x40, 0x00, 0x00, 0x00, 0x0b, 0x00, 0x00, 0x00,
  0x0a, 0x00, 0x00, 0x00, 0x32, 0xfb, 0xff, 0xff, 0x10, 0x00, 0x00, 0x00,
  0x00, 0x00, 0x00, 0x01, 0x18, 0x00, 0x00, 0x00, 0x1c, 0x00, 0x00, 0x00,
  0x24, 0xfb, 0xff, 0xff, 0x00, 0x00, 0x00, 0x03, 0x01, 0x00, 0x00, 0x00,
  0x01, 0x00, 0x00, 0x00, 0x01, 0x00, 0x00, 0x00, 0x40, 0x00, 0x00, 0x00,
  0x03, 0x00, 0x00, 0x00, 0x3f, 0x00, 0x00, 0x00, 0x0d, 0x00, 0x00, 0x00,
  0x0c, 0x00, 0x00, 0x00, 0xd2, 0xfb, 0xff, 0xff, 0x14, 0x00, 0x00, 0x00,
  0x00, 0x00, 0x00, 0x0b, 0x10, 0x00, 0x00, 0x00, 0x14, 0x00, 0x00, 0x00,
  0x02, 0x00, 0x00, 0x00, 0x5c, 0x97, 0xff, 0xff, 0x01, 0x00, 0x00, 0x00,
  0x3f, 0x00, 0x00, 0x00, 0x02, 0x00, 0x00, 0x00, 0x3b, 0x00, 0x00, 0x00,
  0x3e, 0x00, 0x00, 0x00, 0x9e, 0xfb, 0xff, 0xff, 0x10, 0x00, 0x00, 0x00,
  0x00, 0x00, 0x00, 0x01, 0x14, 0x00, 0x00, 0x00, 0x18, 0x00, 0x00, 0x00,
  0x46, 0xfc, 0xff, 0xff, 0x01, 0x00, 0x00, 0x00, 0x01, 0x00, 0x00, 0x00,
  0x01, 0x00, 0x00, 0x00, 0x3e, 0x00, 0x00, 0x00, 0x03, 0x00, 0x00, 0x00,
  0x3d, 0x00, 0x00, 0x00, 0x0f, 0x00, 0x00, 0x00, 0x0e, 0x00, 0x00, 0x00,
  0x3a, 0xfc, 0xff, 0xff, 0x14, 0x00, 0x00, 0x00, 0x00, 0x00, 0x00, 0x02,
  0x20, 0x00, 0x00, 0x00, 0x24, 0x00, 0x00, 0x00, 0x01, 0x00, 0x00, 0x00,
  0x2a, 0xfc, 0xff, 0xff, 0x00, 0x00, 0x00, 0x03, 0x01, 0x00, 0x00, 0x00,
  0x01, 0x00, 0x00, 0x00, 0x01, 0x00, 0x00, 0x00, 0x01, 0x00, 0x00, 0x00,
  0x3d, 0x00, 0x00, 0x00, 0x03, 0x00, 0x00, 0x00, 0x3c, 0x00, 0x00, 0x00,
  0x11, 0x00, 0x00, 0x00, 0x10, 0x00, 0x00, 0x00, 0x1a, 0xfc, 0xff, 0xff,
  0x10, 0x00, 0x00, 0x00, 0x00, 0x00, 0x00, 0x01, 0x18, 0x00, 0x00, 0x00,
  0x1c, 0x00, 0x00, 0x00, 0x0c, 0xfc, 0xff, 0xff, 0x00, 0x00, 0x00, 0x03,
  0x01, 0x00, 0x00, 0x00, 0x01, 0x00, 0x00, 0x00, 0x01, 0x00, 0x00, 0x00,
  0x3c, 0x00, 0x00, 0x00, 0x03, 0x00, 0x00, 0x00, 0x3b, 0x00, 0x00, 0x00,
  0x13, 0x00, 0x00, 0x00, 0x12, 0x00, 0x00, 0x00, 0x56, 0xfc, 0xff, 0xff,
  0x10, 0x00, 0x00, 0x00, 0x00, 0x00, 0x00, 0x01, 0x14, 0x00, 0x00, 0x00,
  0x18, 0x00, 0x00, 0x00, 0xfe, 0xfc, 0xff, 0xff, 0x01, 0x00, 0x00, 0x00,
  0x01, 0x00, 0x00, 0x00, 0x01, 0x00, 0x00, 0x00, 0x3b, 0x00, 0x00, 0x00,
  0x03, 0x00, 0x00, 0x00, 0x3a, 0x00, 0x00, 0x00, 0x15, 0x00, 0x00, 0x00,
  0x14, 0x00, 0x00, 0x00, 0xf2, 0xfc, 0xff, 0xff, 0x14, 0x00, 0x00, 0x00,
  0x00, 0x00, 0x00, 0x02, 0x24, 0x00, 0x00, 0x00, 0x28, 0x00, 0x00, 0x00,
  0x01, 0x00, 0x00, 0x00, 0x2a, 0xfe, 0xff, 0xff, 0x00, 0x00, 0x00, 0x03,
  0x01, 0x00, 0x00, 0x00, 0x02, 0x00, 0x00, 0x00, 0x02, 0x00, 0x00, 0x00,
  0x00, 0x00, 0x00, 0x01, 0x01, 0x00, 0x00, 0x00, 0x3a, 0x00, 0x00, 0x00,
  0x03, 0x00, 0x00, 0x00, 0x39, 0x00, 0x00, 0x00, 0x17, 0x00, 0x00, 0x00,
  0x16, 0x00, 0x00, 0x00, 0x3a, 0xfd, 0xff, 0xff, 0x14, 0x00, 0x00, 0x00,
  0x00, 0x00, 0x00, 0x16, 0x10, 0x00, 0x00, 0x00, 0x14, 0x00, 0x00, 0x00,
  0x03, 0x00, 0x00, 0x00, 0xc4, 0x98, 0xff, 0xff, 0x01, 0x00, 0x00, 0x00,
  0x39, 0x00, 0x00, 0x00, 0x02, 0x00, 0x00, 0x00, 0x38, 0x00, 0x00, 0x00,
  0x01, 0x00, 0x00, 0x00, 0x06, 0xfd, 0xff, 0xff, 0x10, 0x00, 0x00, 0x00,
  0x00, 0x00, 0x00, 0x01, 0x18, 0x00, 0x00, 0x00, 0x1c, 0x00, 0x00, 0x00,
  0xf8, 0xfc, 0xff, 0xff, 0x00, 0x00, 0x00, 0x03, 0x01, 0x00, 0x00, 0x00,
  0x01, 0x00, 0x00, 0x00, 0x01, 0x00, 0x00, 0x00, 0x38, 0x00, 0x00, 0x00,
  0x03, 0x00, 0x00, 0x00, 0x37, 0x00, 0x00, 0x00, 0x19, 0x00, 0x00, 0x00,
  0x18, 0x00, 0x00, 0x00, 0xa6, 0xfd, 0xff, 0xff, 0x14, 0x00, 0x00, 0x00,
  0x00, 0x00, 0x00, 0x0b, 0x10, 0x00, 0x00, 0x00, 0x14, 0x00, 0x00, 0x00,
  0x02, 0x00, 0x00, 0x00, 0x30, 0x99, 0xff, 0xff, 0x01, 0x00, 0x00, 0x00,
  0x37, 0x00, 0x00, 0x00, 0x02, 0x00, 0x00, 0x00, 0x33, 0x00, 0x00, 0x00,
  0x36, 0x00, 0x00, 0x00, 0x72, 0xfd, 0xff, 0xff, 0x10, 0x00, 0x00, 0x00,
  0x00, 0x00, 0x00, 0x01, 0x14, 0x00, 0x00, 0x00, 0x18, 0x00, 0x00, 0x00,
  0x1a, 0xfe, 0xff, 0xff, 0x01, 0x00, 0x00, 0x00, 0x01, 0x00, 0x00, 0x00,
  0x01, 0x00, 0x00, 0x00, 0x36, 0x00, 0x00, 0x00, 0x03, 0x00, 0x00, 0x00,
  0x35, 0x00, 0x00, 0x00, 0x1b, 0x00, 0x00, 0x00, 0x1a, 0x00, 0x00, 0x00,
  0x0e, 0xfe, 0xff, 0xff, 0x14, 0x00, 0x00, 0x00, 0x00, 0x00, 0x00, 0x02,
  0x20, 0x00, 0x00, 0x00, 0x24, 0x00, 0x00, 0x00, 0x01, 0x00, 0x00, 0x00,
  0xfe, 0xfd, 0xff, 0xff, 0x00, 0x00, 0x00, 0x03, 0x01, 0x00, 0x00, 0x00,
  0x01, 0x00, 0x00, 0x00, 0x01, 0x00, 0x00, 0x00, 0x01, 0x00, 0x00, 0x00,
  0x35, 0x00, 0x00, 0x00, 0x03, 0x00, 0x00, 0x00, 0x34, 0x00, 0x00, 0x00,
  0x1d, 0x00, 0x00, 0x00, 0x1c, 0x00, 0x00, 0x00, 0xee, 0xfd, 0xff, 0xff,
  0x10, 0x00, 0x00, 0x00, 0x00, 0x00, 0x00, 0x01, 0x18, 0x00, 0x00, 0x00,
  0x1c, 0x00, 0x00, 0x00, 0xe0, 0xfd, 0xff, 0xff, 0x00, 0x00, 0x00, 0x03,
  0x01, 0x00, 0x00, 0x00, 0x01, 0x00, 0x00, 0x00, 0x01, 0x00, 0x00, 0x00,
  0x34, 0x00, 0x00, 0x00, 0x03, 0x00, 0x00, 0x00, 0x33, 0x00, 0x00, 0x00,
  0x1f, 0x00, 0x00, 0x00, 0x1e, 0x00, 0x00, 0x00, 0x2a, 0xfe, 0xff, 0xff,
  0x10, 0x00, 0x00, 0x00, 0x00, 0x00, 0x00, 0x01, 0x14, 0x00, 0x00, 0x00,
  0x18, 0x00, 0x00, 0x00, 0xd2, 0xfe, 0xff, 0xff, 0x01, 0x00, 0x00, 0x00,
  0x01, 0x00, 0x00, 0x00, 0x01, 0x00, 0x00, 0x00, 0x33, 0x00, 0x00, 0x00,
  0x03, 0x00, 0x00, 0x00, 0x32, 0x00, 0x00, 0x00, 0x21, 0x00, 0x00, 0x00,
  0x20, 0x00, 0x00, 0x00, 0xc6, 0xfe, 0xff, 0xff, 0x24, 0x00, 0x00, 0x00,
  0x00, 0x00, 0x00, 0x02, 0x34, 0x00, 0x00, 0x00, 0x38, 0x00, 0x00, 0x00,
  0x01, 0x00, 0x00, 0x00, 0x00, 0x00, 0x0e, 0x00, 0x18, 0x00, 0x17, 0x00,
  0x10, 0x00, 0x0c, 0x00, 0x08, 0x00, 0x07, 0x00, 0x0e, 0x00, 0x00, 0x00,
  0x00, 0x00, 0x00, 0x03, 0x01, 0x00, 0x00, 0x00, 0x02, 0x00, 0x00, 0x00,
  0x02, 0x00, 0x00, 0x00, 0x00, 0x00, 0x00, 0x01, 0x01, 0x00, 0x00, 0x00,
  0x32, 0x00, 0x00, 0x00, 0x03, 0x00, 0x00, 0x00, 0x31, 0x00, 0x00, 0x00,
  0x23, 0x00, 0x00, 0x00, 0x22, 0x00, 0x00, 0x00, 0x1e, 0xff, 0xff, 0xff,
  0x14, 0x00, 0x00, 0x00, 0x00, 0x00, 0x00, 0x16, 0x10, 0x00, 0x00, 0x00,
  0x14, 0x00, 0x00, 0x00, 0x03, 0x00, 0x00, 0x00, 0xa8, 0x9a, 0xff, 0xff,
  0x01, 0x00, 0x00, 0x00, 0x31, 0x00, 0x00, 0x00, 0x02, 0x00, 0x00, 0x00,
  0x30, 0x00, 0x00, 0x00, 0x01, 0x00, 0x00, 0x00, 0xea, 0xfe, 0xff, 0xff,
  0x10, 0x00, 0x00, 0x00, 0x00, 0x00, 0x00, 0x01, 0x18, 0x00, 0x00, 0x00,
  0x1c, 0x00, 0x00, 0x00, 0xdc, 0xfe, 0xff, 0xff, 0x00, 0x00, 0x00, 0x03,
  0x01, 0x00, 0x00, 0x00, 0x01, 0x00, 0x00, 0x00, 0x01, 0x00, 0x00, 0x00,
  0x30, 0x00, 0x00, 0x00, 0x03, 0x00, 0x00, 0x00, 0x2f, 0x00, 0x00, 0x00,
  0x25, 0x00, 0x00, 0x00, 0x24, 0x00, 0x00, 0x00, 0x8a, 0xff, 0xff, 0xff,
  0x14, 0x00, 0x00, 0x00, 0x00, 0x00, 0x00, 0x0b, 0x10, 0x00, 0x00, 0x00,
  0x14, 0x00, 0x00, 0x00, 0x02, 0x00, 0x00, 0x00, 0x14, 0x9b, 0xff, 0xff,
  0x01, 0x00, 0x00, 0x00, 0x2f, 0x00, 0x00, 0x00, 0x02, 0x00, 0x00, 0x00,
  0x2c, 0x00, 0x00, 0x00, 0x2e, 0x00, 0x00, 0x00, 0x56, 0xff, 0xff, 0xff,
  0x1c, 0x00, 0x00, 0x00, 0x00, 0x00, 0x00, 0x01, 0x20, 0x00, 0x00, 0x00,
  0x24, 0x00, 0x00, 0x00, 0x00, 0x00, 0x0a, 0x00, 0x0c, 0x00, 0x00, 0x00,
  0x08, 0x00, 0x04, 0x00, 0x0a, 0x00, 0x00, 0x00, 0x01, 0x00, 0x00, 0x00,
  0x01, 0x00, 0x00, 0x00, 0x01, 0x00, 0x00, 0x00, 0x2e, 0x00, 0x00, 0x00,
  0x03, 0x00, 0x00, 0x00, 0x2d, 0x00, 0x00, 0x00, 0x27, 0x00, 0x00, 0x00,
  0x26, 0x00, 0x00, 0x00, 0x00, 0x00, 0x0e, 0x00, 0x1a, 0x00, 0x14, 0x00,
  0x10, 0x00, 0x0c, 0x00, 0x0b, 0x00, 0x04, 0x00, 0x0e, 0x00, 0x00, 0x00,
  0x24, 0x00, 0x00, 0x00, 0x00, 0x00, 0x00, 0x02, 0x30, 0x00, 0x00, 0x00,
  0x34, 0x00, 0x00, 0x00, 0x01, 0x00, 0x00, 0x00, 0x00, 0x00, 0x0e, 0x00,
  0x14, 0x00, 0x00, 0x00, 0x10, 0x00, 0x0c, 0x00, 0x08, 0x00, 0x07, 0x00,
  0x0e, 0x00, 0x00, 0x00, 0x00, 0x00, 0x00, 0x03, 0x01, 0x00, 0x00, 0x00,
  0x01, 0x00, 0x00, 0x00, 0x01, 0x00, 0x00, 0x00, 0x01, 0x00, 0x00, 0x00,
  0x2d, 0x00, 0x00, 0x00, 0x03, 0x00, 0x00, 0x00, 0x2c, 0x00, 0x00, 0x00,
  0x29, 0x00, 0x00, 0x00, 0x28, 0x00, 0x00, 0x00, 0x00, 0x00, 0x0e, 0x00,
  0x14, 0x00, 0x00, 0x00, 0x10, 0x00, 0x0c, 0x00, 0x0b, 0x00, 0x04, 0x00,
  0x0e, 0x00, 0x00, 0x00, 0x1c, 0x00, 0x00, 0x00, 0x00, 0x00, 0x00, 0x01,
  0x24, 0x00, 0x00, 0x00, 0x28, 0x00, 0x00, 0x00, 0x0c, 0x00, 0x10, 0x00,
  0x00, 0x00, 0x0c, 0x00, 0x08, 0x00, 0x07, 0x00, 0x0c, 0x00, 0x00, 0x00,
  0x00, 0x00, 0x00, 0x03, 0x02, 0x00, 0x00, 0x00, 0x02, 0x00, 0x00, 0x00,
  0x01, 0x00, 0x00, 0x00, 0x2c, 0x00, 0x00, 0x00, 0x03, 0x00, 0x00, 0x00,
  0x00, 0x00, 0x00, 0x00, 0x2b, 0x00, 0x00, 0x00, 0x2a, 0x00, 0x00, 0x00,
  0x01, 0x00, 0x00, 0x00, 0x47, 0x00, 0x00, 0x00, 0x01, 0x00, 0x00, 0x00,
  0x00, 0x00, 0x00, 0x00, 0x48, 0x00, 0x00, 0x00, 0x14, 0x64, 0x00, 0x00,
  0xa0, 0x63, 0x00, 0x00, 0x20, 0x63, 0x00, 0x00, 0xa4, 0x62, 0x00, 0x00,
  0xc0, 0x60, 0x00, 0x00, 0xdc, 0x5e, 0x00, 0x00, 0x30, 0x5c, 0x00, 0x00,
  0x84, 0x59, 0x00, 0x00, 0xb8, 0x58, 0x00, 0x00, 0xec, 0x57, 0x00, 0x00,
  0x38, 0x55, 0x00, 0x00, 0x24, 0x52, 0x00, 0x00, 0x78, 0x4f, 0x00, 0x00,
  0xcc, 0x4c, 0x00, 0x00, 0x00, 0x4c, 0x00, 0x00, 0x34, 0x4b, 0x00, 0x00,
  0x80, 0x48, 0x00, 0x00, 0x80, 0x45, 0x00, 0x00, 0xd0, 0x42, 0x00, 0x00,
  0x24, 0x40, 0x00, 0x00, 0x58, 0x3f, 0x00, 0x00, 0x8c, 0x3e, 0x00, 0x00,
  0xd8, 0x3b, 0x00, 0x00, 0xd8, 0x38, 0x00, 0x00, 0x28, 0x36, 0x00, 0x00,
  0x7c, 0x33, 0x00, 0x00, 0xb0, 0x32, 0x00, 0x00, 0xe4, 0x31, 0x00, 0x00,
  0x30, 0x2f, 0x00, 0x00, 0x30, 0x2c, 0x00, 0x00, 0x80, 0x29, 0x00, 0x00,
  0xd4, 0x26, 0x00, 0x00, 0x08, 0x26, 0x00, 0x00, 0x3c, 0x25, 0x00, 0x00,
  0x88, 0x22, 0x00, 0x00, 0x88, 0x1f, 0x00, 0x00, 0xd8, 0x1c, 0x00, 0x00,
  0x2c, 0x1a, 0x00, 0x00, 0x58, 0x19, 0x00, 0x00, 0x84, 0x18, 0x00, 0x00,
  0xb0, 0x17, 0x00, 0x00, 0x80, 0x16, 0x00, 0x00, 0xb8, 0x15, 0x00, 0x00,
  0xf4, 0x14, 0x00, 0x00, 0x28, 0x14, 0x00, 0x00, 0x24, 0x13, 0x00, 0x00,
  0x50, 0x12, 0x00, 0x00, 0xd4, 0x11, 0x00, 0x00, 0xf0, 0x10, 0x00, 0x00,
  0x7c, 0x10, 0x00, 0x00, 0x88, 0x0f, 0x00, 0x00, 0xc4, 0x0e, 0x00, 0x00,
  0xe0, 0x0d, 0x00, 0x00, 0xec, 0x0c, 0x00, 0x00, 0x28, 0x0c, 0x00, 0x00,
  0xb4, 0x0b, 0x00, 0x00, 0xd0, 0x0a, 0x00, 0x00, 0x5c, 0x0a, 0x00, 0x00,
  0x68, 0x09, 0x00, 0x00, 0xa4, 0x08, 0x00, 0x00, 0xc0, 0x07, 0x00, 0x00,
  0xcc, 0x06, 0x00, 0x00, 0x08, 0x06, 0x00, 0x00, 0x94, 0x05, 0x00, 0x00,
  0xb0, 0x04, 0x00, 0x00, 0xbc, 0x03, 0x00, 0x00, 0x18, 0x03, 0x00, 0x00,
  0xa4, 0x02, 0x00, 0x00, 0xe0, 0x01, 0x00, 0x00, 0x24, 0x01, 0x00, 0x00,
  0x78, 0x00, 0x00, 0x00, 0x04, 0x00, 0x00, 0x00, 0x22, 0x9d, 0xff, 0xff,
  0x00, 0x00, 0x00, 0x01, 0x14, 0x00, 0x00, 0x00, 0x30, 0x00, 0x00, 0x00,
  0x48, 0x00, 0x00, 0x00, 0x00, 0x00, 0x00, 0x09, 0x44, 0x00, 0x00, 0x00,
  0x0c, 0x9d, 0xff, 0xff, 0x08, 0x00, 0x00, 0x00, 0x10, 0x00, 0x00, 0x00,
  0x01, 0x00, 0x00, 0x00, 0x80, 0xff, 0xff, 0xff, 0xff, 0xff, 0xff, 0xff,
  0x01, 0x00, 0x00, 0x00, 0x00, 0x00, 0x80, 0x3b, 0x19, 0x00, 0x00, 0x00,
  0x53, 0x74, 0x61, 0x74, 0x65, 0x66, 0x75, 0x6c, 0x50, 0x61, 0x72, 0x74,
  0x69, 0x74, 0x69, 0x6f, 0x6e, 0x65, 0x64, 0x43, 0x61, 0x6c, 0x6c, 0x3a,
  0x30, 0x00, 0x00, 0x00, 0x04, 0x00, 0x00, 0x00, 0x01, 0x00, 0x00, 0x00,
  0x0c, 0x00, 0x00, 0x00, 0x0c, 0x00, 0x00, 0x00, 0x02, 0x00, 0x00, 0x00,
  0x92, 0x9d, 0xff, 0xff, 0x00, 0x00, 0x00, 0x01, 0x14, 0x00, 0x00, 0x00,
  0x30, 0x00, 0x00, 0x00, 0x47, 0x00, 0x00, 0x00, 0x00, 0x00, 0x00, 0x09,
  0x7c, 0x00, 0x00, 0x00, 0x7c, 0x9d, 0xff, 0xff, 0x08, 0x00, 0x00, 0x00,
  0x10, 0x00, 0x00, 0x00, 0x01, 0x00, 0x00, 0x00, 0xfd, 0xff, 0xff, 0xff,
  0xff, 0xff, 0xff, 0xff, 0x01, 0x00, 0x00, 0x00, 0xb4, 0x23, 0x64, 0x3d,
  0x52, 0x00, 0x00, 0x00, 0x6d, 0x6f, 0x64, 0x65, 0x6c, 0x5f, 0x31, 0x2f,
  0x6c, 0x6f, 0x67, 0x69, 0x74, 0x73, 0x2f, 0x42, 0x69, 0x61, 0x73, 0x41,
  0x64, 0x64, 0x3b, 0x6d, 0x6f, 0x64, 0x65, 0x6c, 0x5f, 0x31, 0x2f, 0x6c,
  0x6f, 0x67, 0x69, 0x74, 0x73, 0x2f, 0x43, 0x6f, 0x6e, 0x76, 0x32, 0x44,
  0x3b, 0x6d, 0x6f, 0x64, 0x65, 0x6c, 0x5f, 0x31, 0x2f, 0x6c, 0x6f, 0x67,
  0x69, 0x74, 0x73, 0x2f, 0x42, 0x69, 0x61, 0x73, 0x41, 0x64, 0x64, 0x2f,
  0x52, 0x65, 0x61, 0x64, 0x56, 0x61, 0x72, 0x69, 0x61, 0x62, 0x6c, 0x65,
  0x4f, 0x70, 0x00, 0x00, 0x04, 0x00, 0x00, 0x00, 0x01, 0x00, 0x00, 0x00,
  0x0c, 0x00, 0x00, 0x00, 0x0c, 0x00, 0x00, 0x00, 0x02, 0x00, 0x00, 0x00,
  0x3a, 0x9e, 0xff, 0xff, 0x00, 0x00, 0x00, 0x01, 0x14, 0x00, 0x00, 0x00,
  0x34, 0x00, 0x00, 0x00, 0x46, 0x00, 0x00, 0x00, 0x00, 0x00, 0x00, 0x09,
  0x8c, 0x00, 0x00, 0x00, 0x24, 0x9e, 0xff, 0xff, 0x08, 0x00, 0x00, 0x00,
  0x14, 0x00, 0x00, 0x00, 0x01, 0x00, 0x00, 0x00, 0x80, 0xff, 0xff, 0xff,
  0xff, 0xff, 0xff, 0xff, 0x00, 0x00, 0x00, 0x00, 0x01, 0x00, 0x00, 0x00,
  0x1c, 0x61, 0xef, 0x3c, 0x5e, 0x00, 0x00, 0x00, 0x6d, 0x6f, 0x64, 0x65,
  0x6c, 0x5f, 0x31, 0x2f, 0x68, 0x65, 0x61, 0x64, 0x2f, 0x52, 0x65, 0x6c,
  0x75, 0x3b, 0x6d, 0x6f, 0x64, 0x65, 0x6c, 0x5f, 0x31, 0x2f, 0x68, 0x65,
  0x61, 0x64, 0x2f, 0x42, 0x69, 0x61, 0x73, 0x41, 0x64, 0x64, 0x3b, 0x6d,
  0x6f, 0x64, 0x65, 0x6c, 0x5f, 0x31, 0x2f, 0x68, 0x65, 0x61, 0x64, 0x2f,
  0x43, 0x6f, 0x6e, 0x76, 0x32, 0x44, 0x3b, 0x6d, 0x6f, 0x64, 0x65, 0x6c,
  0x5f, 0x31, 0x2f, 0x68, 0x65, 0x61, 0x64, 0x2f, 0x42, 0x69, 0x61, 0x73,
  0x41, 0x64, 0x64, 0x2f, 0x52, 0x65, 0x61, 0x64, 0x56, 0x61, 0x72, 0x69,
  0x61, 0x62, 0x6c, 0x65, 0x4f, 0x70, 0x00, 0x00, 0x04, 0x00, 0x00, 0x00,
  0x01, 0x00, 0x00, 0x00, 0x0c, 0x00, 0x00, 0x00, 0x0c, 0x00, 0x00, 0x00,
  0x20, 0x00, 0x00, 0x00, 0xf2, 0x9e, 0xff, 0xff, 0x00, 0x00, 0x00, 0x01,
  0x14, 0x00, 0x00, 0x00, 0x30, 0x00, 0x00, 0x00, 0x45, 0x00, 0x00, 0x00,
  0x00, 0x00, 0x00, 0x09, 0x94, 0x00, 0x00, 0x00, 0xdc, 0x9e, 0xff, 0xff,
  0x08, 0x00, 0x00, 0x00, 0x10, 0x00, 0x00, 0x00, 0x01, 0x00, 0x00, 0x00,
  0x80, 0xff, 0xff, 0xff, 0xff, 0xff, 0xff, 0xff, 0x01, 0x00, 0x00, 0x00,
  0xc1, 0xc0, 0xc0, 0x3c, 0x6a, 0x00, 0x00, 0x00, 0x6d, 0x6f, 0x64, 0x65,
  0x6c, 0x5f, 0x31, 0x2f, 0x62, 0x6c, 0x6f, 0x63, 0x6b, 0x5f, 0x36, 0x5f,
  0x65, 0x78, 0x70, 0x61, 0x6e, 0x64, 0x5f, 0x72, 0x65, 0x6c, 0x75, 0x2f,
  0x52, 0x65, 0x6c, 0x75, 0x36, 0x3b, 0x6d, 0x6f, 0x64, 0x65, 0x6c, 0x5f,
  0x31, 0x2f, 0x62, 0x6c, 0x6f, 0x63, 0x6b, 0x5f, 0x36, 0x5f, 0x65, 0x78,
  0x70, 0x61, 0x6e, 0x64, 0x5f, 0x42, 0x4e, 0x2f, 0x46, 0x75, 0x73, 0x65,
  0x64, 0x42, 0x61, 0x74, 0x63, 0x68, 0x4e, 0x6f, 0x72, 0x6d, 0x56, 0x33,
  0x3b, 0x6d, 0x6f, 0x64, 0x65, 0x6c, 0x5f, 0x31, 0x2f, 0x62, 0x6c, 0x6f,
  0x63, 0x6b, 0x5f, 0x36, 0x5f, 0x65, 0x78, 0x70, 0x61, 0x6e, 0x64, 0x2f,
  0x43, 0x6f, 0x6e, 0x76, 0x32, 0x44, 0x00, 0x00, 0x04, 0x00, 0x00, 0x00,
  0x01, 0x00, 0x00, 0x00, 0x0c, 0x00, 0x00, 0x00, 0x0c, 0x00, 0x00, 0x00,
  0x30, 0x00, 0x00, 0x00, 0xb2, 0x9f, 0xff, 0xff, 0x00, 0x00, 0x00, 0x01,
  0x14, 0x00, 0x00, 0x00, 0x34, 0x00, 0x00, 0x00, 0x44, 0x00, 0x00, 0x00,
  0x00, 0x00, 0x00, 0x09, 0x44, 0x00, 0x00, 0x00, 0x9c, 0x9f, 0xff, 0xff,
  0x08, 0x00, 0x00, 0x00, 0x14, 0x00, 0x00, 0x00, 0x01, 0x00, 0x00, 0x00,
  0xeb, 0xff, 0xff, 0xff, 0xff, 0xff, 0xff, 0xff, 0x00, 0x00, 0x00, 0x00,
  0x01, 0x00, 0x00, 0x00, 0x10, 0x5c, 0xa3, 0x3d, 0x17, 0x00, 0x00, 0x00,
  0x6d, 0x6f, 0x64, 0x65, 0x6c, 0x5f, 0x31, 0x2f, 0x62, 0x6c, 0x6f, 0x63,
  0x6b, 0x5f, 0x35, 0x5f, 0x61, 0x64, 0x64, 0x2f, 0x61, 0x64, 0x64, 0x00,
  0x04, 0x00, 0x00, 0x00, 0x01, 0x00, 0x00, 0x00, 0x0c, 0x00, 0x00, 0x00,
  0x0c, 0x00, 0x00, 0x00, 0x08, 0x00, 0x00, 0x00, 0x22, 0xa0, 0xff, 0xff,
  0x00, 0x00, 0x00, 0x01, 0x14, 0x00, 0x00, 0x00, 0x30, 0x00, 0x00, 0x00,
  0x43, 0x00, 0x00, 0x00, 0x00, 0x00, 0x00, 0x09, 0x74, 0x00, 0x00, 0x00,
  0x0c, 0xa0, 0xff, 0xff, 0x08, 0x00, 0x00, 0x00, 0x10, 0x00, 0x00, 0x00,
  0x01, 0x00, 0x00, 0x00, 0xef, 0xff, 0xff, 0xff, 0xff, 0xff, 0xff, 0xff,
  0x01, 0x00, 0x00, 0x00, 0x61, 0x76, 0x30, 0x3d, 0x4a, 0x00, 0x00, 0x00,
  0x6d, 0x6f, 0x64, 0x65, 0x6c, 0x5f, 0x31, 0x2f, 0x62, 0x6c, 0x6f, 0x63,
  0x6b, 0x5f, 0x35, 0x5f, 0x70, 0x72, 0x6f, 0x6a, 0x65, 0x63, 0x74, 0x5f,
  0x42, 0x4e, 0x2f, 0x46, 0x75, 0x73, 0x65, 0x64, 0x42, 0x61, 0x74, 0x63,
  0x68, 0x4e, 0x6f, 0x72, 0x6d, 0x56, 0x33, 0x3b, 0x6d, 0x6f, 0x64, 0x65,
  0x6c, 0x5f, 0x31, 0x2f, 0x62, 0x6c, 0x6f, 0x63, 0x6b, 0x5f, 0x35, 0x5f,
  0x70, 0x72, 0x6f, 0x6a, 0x65, 0x63, 0x74, 0x2f, 0x43, 0x6f, 0x6e, 0x76,
  0x32, 0x44, 0x00, 0x00, 0x04, 0x00, 0x00, 0x00, 0x01, 0x00, 0x00, 0x00,
  0x0c, 0x00, 0x00, 0x00, 0x0c, 0x00, 0x00, 0x00, 0x08, 0x00, 0x00, 0x00,
  0xc2, 0xa0, 0xff, 0xff, 0x00, 0x00, 0x00, 0x01, 0x14, 0x00, 0x00, 0x00,
  0x34, 0x00, 0x00, 0x00, 0x42, 0x00, 0x00, 0x00, 0x00, 0x00, 0x00, 0x09,
  0xc4, 0x00, 0x00, 0x00, 0xac, 0xa0, 0xff, 0xff, 0x08, 0x00, 0x00, 0x00,
  0x14, 0x00, 0x00, 0x00, 0x01, 0x00, 0x00, 0x00, 0x80, 0xff, 0xff, 0xff,
  0xff, 0xff, 0xff, 0xff, 0x00, 0x00, 0x00, 0x00, 0x01, 0x00, 0x00, 0x00,
  0x8b, 0xb1, 0xaa, 0x3c, 0x94, 0x00, 0x00, 0x00, 0x6d, 0x6f, 0x64, 0x65,
  0x6c, 0x5f, 0x31, 0x2f, 0x62, 0x6c, 0x6f, 0x63, 0x6b, 0x5f, 0x35, 0x5f,
  0x64, 0x65, 0x70, 0x74, 0x68, 0x77, 0x69, 0x73, 0x65, 0x5f, 0x72, 0x65,
  0x6c, 0x75, 0x2f, 0x52, 0x65, 0x6c, 0x75, 0x36, 0x3b, 0x6d, 0x6f, 0x64,
  0x65, 0x6c, 0x5f, 0x31, 0x2f, 0x62, 0x6c, 0x6f, 0x63, 0x6b, 0x5f, 0x35,
  0x5f, 0x64, 0x65, 0x70, 0x74, 0x68, 0x77, 0x69, 0x73, 0x65, 0x5f, 0x42,
  0x4e, 0x2f, 0x46, 0x75, 0x73, 0x65, 0x64, 0x42, 0x61, 0x74, 0x63, 0x68,
  0x4e, 0x6f, 0x72, 0x6d, 0x56, 0x33, 0x3b, 0x6d, 0x6f, 0x64, 0x65, 0x6c,
  0x5f, 0x31, 0x2f, 0x62, 0x6c, 0x6f, 0x63, 0x6b, 0x5f, 0x36, 0x5f, 0x65,
  0x78, 0x70, 0x61, 0x6e, 0x64, 0x2f, 0x43, 0x6f, 0x6e, 0x76, 0x32, 0x44,
  0x3b, 0x6d, 0x6f, 0x64, 0x65, 0x6c, 0x5f, 0x31, 0x2f, 0x62, 0x6c, 0x6f,
  0x63, 0x6b, 0x5f, 0x35, 0x5f, 0x64, 0x65, 0x70, 0x74, 0x68, 0x77, 0x69,
  0x73, 0x65, 0x2f, 0x64, 0x65, 0x70, 0x74, 0x68, 0x77, 0x69, 0x73, 0x65,
  0x00, 0x00, 0x00, 0x00, 0x04, 0x00, 0x00, 0x00, 0x01, 0x00, 0x00, 0x00,
  0x0c, 0x00, 0x00, 0x00, 0x0c, 0x00, 0x00, 0x00, 0x30, 0x00, 0x00, 0x00,
  0xb2, 0xa1, 0xff, 0xff, 0x00, 0x00, 0x00, 0x01, 0x14, 0x00, 0x00, 0x00,
  0x30, 0x00, 0x00, 0x00, 0x41, 0x00, 0x00, 0x00, 0x00, 0x00, 0x00, 0x09,
  0xb4, 0x00, 0x00, 0x00, 0x9c, 0xa1, 0xff, 0xff, 0x08, 0x00, 0x00, 0x00,
  0x10, 0x00, 0x00, 0x00, 0x01, 0x00, 0x00, 0x00, 0x80, 0xff, 0xff, 0xff,
  0xff, 0xff, 0xff, 0xff, 0x01, 0x00, 0x00, 0x00, 0xc0, 0x99, 0xbb, 0x3c,
  0x88, 0x00, 0x00, 0x00, 0x6d, 0x6f, 0x64, 0x65, 0x6c, 0x5f, 0x31, 0x2f,
  0x62, 0x6c, 0x6f, 0x63, 0x6b, 0x5f, 0x35, 0x5f, 0x65, 0x78, 0x70, 0x61,
  0x6e, 0x64, 0x5f, 0x72, 0x65, 0x6c, 0x75, 0x2f, 0x52, 0x65, 0x6c, 0x75,
  0x36, 0x3b, 0x6d, 0x6f, 0x64, 0x65, 0x6c, 0x5f, 0x31, 0x2f, 0x62, 0x6c,
  0x6f, 0x63, 0x6b, 0x5f, 0x35, 0x5f, 0x65, 0x78, 0x70, 0x61, 0x6e, 0x64,
  0x5f, 0x42, 0x4e, 0x2f, 0x46, 0x75, 0x73, 0x65, 0x64, 0x42, 0x61, 0x74,
  0x63, 0x68, 0x4e, 0x6f, 0x72, 0x6d, 0x56, 0x33, 0x3b, 0x6d, 0x6f, 0x64,
  0x65, 0x6c, 0x5f, 0x31, 0x2f, 0x62, 0x6c, 0x6f, 0x63, 0x6b, 0x5f, 0x36,
  0x5f, 0x65, 0x78, 0x70, 0x61, 0x6e, 0x64, 0x2f, 0x43, 0x6f, 0x6e, 0x76,
  0x32, 0x44, 0x3b, 0x6d, 0x6f, 0x64, 0x65, 0x6c, 0x5f, 0x31, 0x2f, 0x62,
  0x6c, 0x6f, 0x63, 0x6b, 0x5f, 0x35, 0x5f, 0x65, 0x78, 0x70, 0x61, 0x6e,
  0x64, 0x2f, 0x43, 0x6f, 0x6e, 0x76, 0x32, 0x44, 0x00, 0x00, 0x00, 0x00,
  0x04, 0x00, 0x00, 0x00, 0x01, 0x00, 0x00, 0x00, 0x0c, 0x00, 0x00, 0x00,
  0x0c, 0x00, 0x00, 0x00, 0x30, 0x00, 0x00, 0x00, 0x92, 0xa2, 0xff, 0xff,
  0x00, 0x00, 0x00, 0x01, 0x14, 0x00, 0x00, 0x00, 0x34, 0x00, 0x00, 0x00,
  0x40, 0x00, 0x00, 0x00, 0x00, 0x00, 0x00, 0x09, 0x44, 0x00, 0x00, 0x00,
  0x7c, 0xa2, 0xff, 0xff, 0x08, 0x00, 0x00, 0x00, 0x14, 0x00, 0x00, 0x00,
  0x01, 0x00, 0x00, 0x00, 0xee, 0xff, 0xff, 0xff, 0xff, 0xff, 0xff, 0xff,
  0x00, 0x00, 0x00, 0x00, 0x01, 0x00, 0x00, 0x00, 0x91, 0xd8, 0x93, 0x3d,
  0x17, 0x00, 0x00, 0x00, 0x6d, 0x6f, 0x64, 0x65, 0x6c, 0x5f, 0x31, 0x2f,
  0x62, 0x6c, 0x6f, 0x63, 0x6b, 0x5f, 0x34, 0x5f, 0x61, 0x64, 0x64, 0x2f,
